<pad>	0
<s>	0
</s>	0
<unk>	0
▁	-3.45691
.	-3.97033
?	-4.29995
..	-4.42717
도	-4.50296
...	-4.62968
가	-4.65105
는	-4.66097
이	-4.72428
은	-4.91791
을	-4.97148
에	-5.15466
고	-5.19681
를	-5.42079
의	-5.42949
지	-5.56206
다	-5.68651
▁진짜	-5.72185
게	-5.72938
서	-5.73165
만	-5.75683
!	-5.76141
,	-5.80802
로	-5.81541
▁"	-5.82742
▁너무	-5.85703
나	-5.9004
▁다	-5.95227
~	-5.96466
면	-6.03959
??	-6.05497
으로	-6.09492
....	-6.14358
요	-6.15289
▁정말	-6.16424
네	-6.16883
하고	-6.19712
▁이	-6.20086
에서	-6.22856
▁더	-6.23061
▁안	-6.27104
한	-6.27294
▁왜	-6.2852
!!	-6.37449
▁그	-6.41839
▁잘	-6.43052
들	-6.43411
야	-6.46779
▁저	-6.47577
라	-6.50517
▁어떻게	-6.61547
"	-6.62265
▁그냥	-6.62354
과	-6.63827
▁많이	-6.70706
ᅲᅲ	-6.72179
~~	-6.74808
▁좀	-6.74865
인데	-6.77396
▁근데	-6.77766
▁ᅲᅲ	-6.77931
▁아	-6.78161
기	-6.7837
냐	-6.79276
아	-6.79491
▁ᄏᄏ	-6.80946
해서	-6.81034
▁이제	-6.81605
▁1	-6.81741
!!!	-6.81807
▁또	-6.8205
니	-6.84816
는데	-6.84879
▁지금	-6.87234
랑	-6.87727
인	-6.90831
▁수	-6.91492
▁제가	-6.92601
까지	-6.92622
▁참	-6.93272
자	-6.95498
어	-6.96436
▁이런	-6.97191
???	-6.9725
▁못	-6.98846
0	-6.99342
보다	-7.01277
네요	-7.01776
일	-7.03151
▁와	-7.03857
▁내	-7.04817
와	-7.05121
거	-7.05187
하면	-7.06279
하는	-7.06317
▁개	-7.08733
부터	-7.09344
대	-7.09456
▁오늘	-7.11581
▁이렇게	-7.11842
해	-7.12054
라고	-7.12565
한테	-7.12937
▁3	-7.13387
년	-7.14038
▁ᄏᄏᄏ	-7.15659
▁나	-7.16034
▁한	-7.1604
ᅲ	-7.18945
▁내가	-7.21858
."	-7.2274
▁난	-7.23026
시	-7.23539
▁일	-7.23665
히	-7.24286
들이	-7.24407
ᄏᄏ	-7.25081
▁2	-7.25539
▁우리	-7.27447
▁뭐	-7.2974
▁사람	-7.30584
▁무슨	-7.3092
▁역시	-7.31969
이나	-7.32859
▁우리나라	-7.32913
에게	-7.33281
▁말	-7.33737
임	-7.33805
▁다시	-7.33923
여	-7.34086
데	-7.34452
이다	-7.34958
^^	-7.3726
▁이게	-7.38413
▁대통령	-7.39002
▁하는	-7.39569
▁삼성	-7.41191
▁박근혜	-7.41267
▁제	-7.4186
건	-7.42363
입니다	-7.42382
▁감사합니다	-7.4296
▁것	-7.43264
사	-7.44323
▁쓰레기	-7.44493
할	-7.44644
▁아니라	-7.44948
▁하고	-7.4558
하게	-7.45666
▁지	-7.45778
~~~	-7.46275
▁좋은	-7.46948
▁나라	-7.47113
좀	-7.47287
▁돈	-7.48253
▁있는	-7.48707
▁중국	-7.48708
구	-7.49562
처럼	-7.50139
수	-7.50425
때	-7.50537
▁넘	-7.50997
안	-7.52576
▁얼마나	-7.53359
▁항상	-7.53895
▁할	-7.54152
지만	-7.54217
▁계속	-7.5537
▁ᄏᄏᄏᄏ	-7.55722
▁그리고	-7.56059
▁이거	-7.57117
▁오	-7.57486
▁그래서	-7.57611
▁저런	-7.58043
ᄏᄏᄏ	-7.58721
▁전	-7.59383
▁일본	-7.59537
구나	-7.60086
▁한국	-7.61195
리	-7.61935
.....	-7.62322
▁그렇게	-7.62739
듯	-7.62805
;;	-7.62815
▁다른	-7.63851
들은	-7.6529
는게	-7.65871
▁거	-7.66031
이랑	-7.66411
▁ᄏ	-7.66473
▁미국	-7.67216
▁아니	-7.67428
음	-7.68644
▁보고	-7.68785
▁하	-7.69028
▁없는	-7.70005
인가	-7.7008
주	-7.70126
▁사	-7.70438
해라	-7.7144
▁아직도	-7.71743
▁그래도	-7.71912
군	-7.724
니까	-7.72663
▁기사	-7.73107
!!!!	-7.74594
▁요즘	-7.74832
하	-7.74912
진	-7.75344
ᄏ	-7.75537
던	-7.75784
▁10	-7.76239
▁완전	-7.76854
▁5	-7.77759
▁대한민국	-7.7784
ᅮᅮ	-7.78123
▁같은	-7.78444
으면	-7.78567
걸	-7.79059
엔	-7.79125
▁아직	-7.79432
억	-7.80373
1	-7.80445
위	-7.80557
▁어제	-7.80753
▁댓글	-7.8087
함	-7.83069
▁여자	-7.83072
▁보면	-7.84094
▁누가	-7.85491
▁해	-7.85692
▁하나	-7.86169
중	-7.86547
때문에	-7.86549
긴	-7.86863
개	-7.86896
▁ᄒᄒ	-7.87005
스	-7.87244
내	-7.87747
죠	-7.87876
▁생각	-7.88478
▁국민	-7.88731
▁4	-7.88857
같은	-7.89367
▁꼭	-7.89492
전	-7.90362
이네	-7.90419
2	-7.90653
해도	-7.91134
보	-7.9199
▁연기	-7.93332
상	-7.93861
▁비	-7.94143
▁그럼	-7.94175
▁하면	-7.94299
▁사람이	-7.94611
▁솔직히	-7.94744
▁뭘	-7.94787
▁요리	-7.948
보고	-7.95385
▁남자	-7.96079
하네	-7.96088
이라고	-7.96804
살	-7.96941
다가	-7.97051
▁없다	-7.97167
▁ᅲ	-7.97182
님	-7.97447
며	-7.98316
▁아님	-7.98345
하지	-7.98968
것	-7.99258
7	-7.99488
▁빨리	-7.99633
치	-7.99695
던데	-8.00155
▁헐	-8.01052
나요	-8.01257
▁사람들	-8.01352
▁최순실	-8.0148
명	-8.01762
......	-8.01768
▁화이팅	-8.01781
줄	-8.02012
신	-8.02164
;	-8.02393
▁많은	-8.02536
▁있다	-8.02754
날	-8.0287
▁트럼프	-8.03162
▁한번	-8.03515
▁ᄏᄏᄏᄏᄏ	-8.04419
진짜	-8.04491
▁20	-8.04519
▁탄핵	-8.04588
려고	-8.04982
보면	-8.05127
▁아닌가	-8.0531
선	-8.05399
)	-8.05612
▁너	-8.06417
▁이건	-8.06439
▁같은데	-8.06773
당	-8.06854
이라	-8.06921
▁가	-8.07223
이면	-8.07249
▁ᅮᅮ	-8.07296
오	-8.07339
▁같이	-8.07726
면서	-8.07759
▁어떤	-8.07969
▁제발	-8.08569
든	-8.08971
▁정	-8.09725
한다	-8.09796
▁인간	-8.09844
는거	-8.09948
▁같다	-8.09951
원	-8.10043
하는데	-8.1006
습니다	-8.10422
하나	-8.10678
▁저는	-8.10751
세	-8.10829
용	-8.1106
▁100	-8.11143
더	-8.1123
ᅮ	-8.11231
인지	-8.11356
겠다	-8.11393
성	-8.11441
▁하는데	-8.11461
▁모두	-8.11625
▁한다	-8.1168
제	-8.11962
적으로	-8.12191
다고	-8.12211
적	-8.1282
▁고민	-8.1295
했는데	-8.13893
▁엄청	-8.14037
▁있는데	-8.1466
차	-8.15068
두	-8.15215
????	-8.15638
더라	-8.15693
▁그런데	-8.15775
▁선수	-8.15877
▁ᅳᅳ	-8.16176
▁해야	-8.16736
▁말이	-8.16793
▁이젠	-8.16804
▁니	-8.16898
라도	-8.17073
▁바로	-8.17433
합니다	-8.1769
..?	-8.17765
▁보	-8.1849
▁갑자기	-8.18506
마	-8.18514
▁막	-8.18787
▁큰	-8.18909
까	-8.1906
겠지	-8.19268
하다	-8.19418
▁가장	-8.19435
소	-8.19592
▁때문에	-8.19731
▁하지	-8.19901
▁다들	-8.20049
,"	-8.20183
▁언제	-8.203
비	-8.2039
는건	-8.20591
그	-8.20656
▁정부	-8.20691
▁얼굴	-8.21055
장	-8.21562
▁아주	-8.21793
▁쳐	-8.21888
인줄	-8.21999
3	-8.22004
것도	-8.22265
▁ᄃᄃ	-8.22316
질	-8.22567
?"	-8.22773
▁때	-8.23275
▁눈	-8.23484
피	-8.23548
▁제대로	-8.23567
▁그런	-8.2359
▁드라마	-8.23595
▁대박	-8.23604
ᄏᄏᄏᄏ	-8.23649
월	-8.23743
▁미친	-8.23745
▁사실	-8.23857
우	-8.23904
▁살	-8.24354
▁아니고	-8.24501
분	-8.25226
▁나도	-8.25243
▁딱	-8.25546
▁문제	-8.26071
조	-8.26166
▁오빠	-8.26232
▁알	-8.26324
▁도대체	-8.26369
▁합니다	-8.26522
▁열심히	-8.27058
▁잘못	-8.27291
▁원래	-8.2743
이냐	-8.27459
▁벌써	-8.27503
길	-8.2755
ᄏᄏᄏᄏᄏᄏᄏᄏᄏᄏᄏᄏᄏᄏᄏᄏ	-8.27829
▁해도	-8.28108
▁아니면	-8.2844
▁차	-8.28501
씨	-8.28755
▁뭔	-8.28806
▁자기	-8.29212
▁대	-8.29405
▁자	-8.29419
▁결국	-8.29683
▁되	-8.2979
미	-8.2982
▁혼자	-8.30448
▁자꾸	-8.30865
▁이미	-8.31163
디	-8.31258
유	-8.31457
▁여기	-8.31595
라는	-8.32067
▁국가	-8.32126
더니	-8.32346
▁주	-8.32404
간	-8.3241
▁결혼	-8.32464
▁처음	-8.32524
시간	-8.32812
▁진심	-8.33106
구만	-8.33266
▁국민들	-8.33314
▁날	-8.33511
이라도	-8.33569
▁싶다	-8.33636
▁혹시	-8.33767
▁누구	-8.33824
▁해서	-8.3404
▁대단하다	-8.34146
적인	-8.34194
▁당신	-8.34226
▁특검	-8.34667
▁최고	-8.3478
▁사진	-8.34851
▁이상	-8.35062
▁줄	-8.35474
▁없고	-8.35747
ᄒᄒ	-8.36686
▁애들	-8.36747
▁아니냐	-8.37036
▁알바	-8.37165
▁6	-8.37203
▁했는데	-8.37254
▁앞으로	-8.37728
▁7	-8.37929
보니	-8.37962
어요	-8.38171
▁모든	-8.38258
▁저렇게	-8.38512
▁영화	-8.38787
▁어디	-8.39581
▁어	-8.39698
말	-8.39892
후	-8.39997
▁해라	-8.40062
▁기자	-8.40295
▁남	-8.4037
만원	-8.40486
▁물	-8.40598
▁조	-8.41328
이지	-8.41567
▁ᄏᄏᄏᄏᄏᄏ	-8.41765
▁피	-8.42107
단	-8.4218
▁제일	-8.42326
거야	-8.42379
▁나라가	-8.42397
▁기	-8.42541
▁마음이	-8.42667
난	-8.42702
해야	-8.42754
▁박	-8.4279
▁내일	-8.42964
▁쉽게	-8.4337
없는	-8.43526
ᅳᅳ	-8.43599
▁절대	-8.43636
너무	-8.43926
대로	-8.44631
▁먼저	-8.4464
(	-8.44891
박	-8.44896
▁알고	-8.44977
노	-8.45086
▁구	-8.45159
형	-8.4527
▁소리	-8.45284
▁불	-8.45621
겠네	-8.45652
란	-8.45739
화	-8.45795
없이	-8.45897
▁아이폰	-8.46013
▁부	-8.46174
▁반	-8.46537
▁30	-8.46563
려	-8.47348
▁이번	-8.47463
다니	-8.47479
▁머리	-8.47542
남	-8.47577
▁글	-8.47585
▁얘기	-8.47879
▁그래	-8.48696
▁미	-8.49076
발	-8.49138
▁없어서	-8.4971
밖에	-8.49744
드	-8.50195
겨	-8.50283
▁뭔가	-8.50413
▁생각이	-8.50493
호	-8.50512
거나	-8.50532
저	-8.5073
▁친구	-8.50915
정	-8.50928
부	-8.51271
달	-8.51525
▁말고	-8.51717
▁회사	-8.51803
▁만들어	-8.51818
있는	-8.51827
들아	-8.52074
▁나는	-8.5227
▁북한	-8.52394
▁박사모	-8.52793
▁뭐가	-8.52832
정말	-8.5316
▁엘지	-8.53284
▁아니다	-8.53366
▁새	-8.53511
▁응원합니다	-8.53675
▁시	-8.53752
▁두	-8.53828
▁그동안	-8.53835
▁세계	-8.53936
▁감사	-8.53953
▁듯	-8.5415
▁닭	-8.54396
등	-8.54549
가요	-8.54598
▁대체	-8.54731
▁무섭다	-8.54914
▁사고	-8.54984
▁노트	-8.55179
▁올해	-8.55204
▁후	-8.55346
하는게	-8.55491
된	-8.55522
▁늘	-8.55838
▁손	-8.55914
▁전화	-8.56063
되	-8.56172
▁마음	-8.56308
▁아무리	-8.56337
;;;	-8.56498
▁게임	-8.565
▁경찰	-8.5652
ᄒ	-8.56929
인가요	-8.56963
▁8	-8.57313
▁될	-8.57405
ᅳ	-8.5767
식	-8.57876
▁있습니다	-8.58205
▁날씨	-8.58289
▁없네	-8.58293
개월	-8.58296
▁김	-8.58373
▁역사	-8.58581
▁대통령이	-8.58601
러	-8.587
가서	-8.58942
이야	-8.58998
▁애	-8.59014
▁않	-8.59106
실	-8.59258
.."	-8.59403
▁ᄍᄍ	-8.59429
감	-8.59568
무	-8.59818
되면	-8.60024
할때	-8.60275
같이	-8.6029
▁국민이	-8.60639
▁입	-8.60798
구요	-8.6081
이고	-8.60934
▁정도	-8.61034
▁사랑	-8.61111
▁군대	-8.61255
▁중	-8.61293
ᄃᄃ	-8.61819
괜히	-8.6198
▁건	-8.62167
▁곧	-8.62291
돈	-8.62315
번	-8.62349
▁연락	-8.62858
▁돈이	-8.63005
▁시간	-8.6309
▁고	-8.63093
▁보니	-8.6313
4	-8.63186
!!!!!	-8.63403
▁그게	-8.63595
▁매일	-8.6362
국	-8.63645
▁세금	-8.63751
사람	-8.63892
하냐	-8.6394
▁그만	-8.63951
▁유	-8.64004
트	-8.64057
에선	-8.64287
▁거의	-8.64357
▁방송	-8.64357
▁원	-8.64468
▁운동	-8.64823
▁어찌	-8.6483
▁촛불	-8.64946
▁니들	-8.64966
▁어디서	-8.65065
▁하루	-8.65139
▁점점	-8.65311
▁모르겠어요	-8.6536
▁맨날	-8.65413
▁부럽다	-8.65427
▁헬조선	-8.65466
동	-8.65536
▁마지막	-8.65627
▁인생	-8.65758
▁여자가	-8.65779
▁없는데	-8.65975
▁좋겠다	-8.66591
▁나라를	-8.66635
▁백주부님	-8.66716
▁서울	-8.66765
▁모습	-8.66788
▁있어서	-8.674
▁이번에	-8.67703
▁되는	-8.6776
▁먹고	-8.67872
▁사람들이	-8.6792
▁있어	-8.67974
매	-8.68801
세요	-8.68944
만큼	-8.69134
▁수준	-8.6919
▁같아요	-8.69219
ᄏᄏᄏᄏᄏ	-8.69262
심	-8.69294
▁조금	-8.69442
▁분	-8.69498
▁저거	-8.69501
▁확실	-8.69633
▁일단	-8.69784
▁존나	-8.69814
5	-8.69951
지도	-8.70051
▁노	-8.70059
▁볼	-8.70282
▁여	-8.70333
▁사기꾼	-8.70421
방	-8.70447
▁저도	-8.70531
래	-8.70677
라니	-8.70863
왜	-8.70988
산	-8.71122
▁어느	-8.71566
라면	-8.72146
겠죠	-8.72171
▁자신	-8.72265
하면서	-8.72521
라서	-8.72564
▁집	-8.72627
한거	-8.72671
중에	-8.72834
정도	-8.73044
▁아닌	-8.73063
▁밖에	-8.73152
▁걍	-8.73222
▁전부	-8.73385
▁유재석	-8.73606
▁법	-8.73851
▁노래	-8.73857
▁세월호	-8.74223
▁죄	-8.74487
▁보는	-8.74571
▁^^	-8.74638
▁무조건	-8.74733
▁당장	-8.74757
▁쓰	-8.7493
▁힘드네요	-8.75063
▁응	-8.75218
-	-8.75313
봐도	-8.75348
놓고	-8.75616
▁상	-8.75696
▁니가	-8.75737
▁울	-8.75985
▁무도	-8.76213
바	-8.76415
?????	-8.76563
▁대한	-8.76772
▁뉴스	-8.77098
.......	-8.77142
한다고	-8.77204
됨	-8.77222
▁얼마	-8.77442
었는데	-8.77703
▁모	-8.77874
▁타	-8.77956
▁평생	-8.78049
린	-8.7814
동안	-8.78176
▁하는거	-8.78232
▁좋아	-8.78356
♡	-8.78588
ᅲᅲᅲ	-8.7859
▁다음	-8.78789
▁정신	-8.7881
▁생일	-8.78986
▁한화	-8.79103
기가	-8.79485
▁가서	-8.79641
▁욕	-8.79673
배	-8.79748
공	-8.79897
▁고마워요	-8.79985
▁첫	-8.80105
▁발	-8.8012
▁딸	-8.80174
하네요	-8.80286
생	-8.80387
▁별로	-8.80462
건데	-8.80556
하는거	-8.80639
▁파	-8.80777
▁9	-8.81078
▁지구	-8.81576
주고	-8.81857
▁나중에	-8.8187
계	-8.8206
와서	-8.82094
▁당	-8.82236
▁진심으로	-8.82246
▁아닌데	-8.82623
▁별	-8.82713
▁아이	-8.82752
▁무	-8.8278
땐	-8.82909
처	-8.82943
▁좋아하는	-8.82976
잖아	-8.82996
▁걸	-8.83093
▁ᅲᅲᅲ	-8.83151
▁청와대	-8.83276
▁우	-8.83504
▁똥	-8.83932
▁축하해요	-8.83937
▁감독	-8.84045
경	-8.84088
▁마	-8.84188
하자	-8.84429
▁기상청	-8.84471
했다	-8.84694
폰	-8.84749
급	-8.84783
문	-8.85042
▁거짓말	-8.85044
▁없이	-8.85098
져	-8.85104
타	-8.85131
천	-8.85141
▁박보검	-8.85224
▁감사해요	-8.85285
으니	-8.85305
▁머	-8.85325
▁드디어	-8.85376
▁술	-8.85455
▁된다	-8.85487
~~~~	-8.85492
해요	-8.8555
▁설마	-8.8557
소리	-8.85691
▁위해	-8.85693
▁잡아	-8.85845
▁공부	-8.85958
튼	-8.86014
:	-8.86251
잘	-8.86375
▁성	-8.86404
▁하네	-8.86477
8	-8.86482
거든요	-8.86497
▁아무	-8.86592
회	-8.86665
▁경기	-8.86701
지말고	-8.87093
▁있나	-8.87186
된다	-8.87221
▁없어	-8.87417
▁순실이	-8.87534
▁배	-8.87638
'	-8.87816
▁신	-8.87858
▁갈	-8.87863
▁엄마	-8.8806
니깐	-8.88118
▁폭발	-8.88394
▁게	-8.88439
▁미세먼지	-8.88475
▁재	-8.88541
길래	-8.8883
더라구요	-8.8885
기도	-8.88879
▁온	-8.88915
인듯	-8.88937
루	-8.89155
▁하네요	-8.89269
▁자주	-8.89581
▁장	-8.89602
재	-8.89631
그냥	-8.89849
▁시간이	-8.89972
집	-8.9003
▁야	-8.90051
▁언론	-8.90141
치고	-8.90181
어서	-8.90218
▁있나요	-8.9058
▁좋다	-8.90917
▁소	-8.91083
▁하는게	-8.91223
하며	-8.91284
▁정유라	-8.91316
▁열	-8.91349
▁세	-8.91381
갈	-8.91474
▁본	-8.91497
▁없	-8.91541
금	-8.91685
▁대상	-8.91693
영	-8.9172
모	-8.91744
~^^	-8.91807
참	-8.91977
짓	-8.92329
▁보기	-8.92564
▁약	-8.92644
▁남자친구	-8.93131
승	-8.9338
▁준비	-8.93387
▁서로	-8.93435
▁둘다	-8.9352
본	-8.93608
▁나쁜	-8.93854
▁안되는	-8.93943
▁들	-8.94049
▁못하고	-8.94203
먹고	-8.94379
애	-8.94454
▁배우	-8.94619
▁단	-8.94848
땜에	-8.94938
병	-8.95003
▁시작	-8.95253
▁나오는	-8.95405
▁끝까지	-8.95601
넘	-8.95666
▁이름	-8.95932
▁기업	-8.96046
▁세상	-8.961
물	-8.96153
연	-8.96177
놈들	-8.96273
▁50	-8.96346
▁남자가	-8.96356
▁겁나	-8.96655
선수	-8.96666
이런	-8.96778
▁못한	-8.96945
관	-8.97044
▁정치	-8.97066
는구나	-8.97149
▁대기업	-8.97156
▁폭탄	-8.97165
▁ᄒ	-8.97207
나라	-8.97398
▁그대로	-8.97437
ᅲᅲᅲᅲ	-8.97528
까봐	-8.97574
▁연애	-8.97735
들의	-8.97776
운	-8.97932
▁걱정	-8.97994
▁폰	-8.9802
▁있으면	-8.98158
려면	-8.98193
건가요	-8.98228
▁그거	-8.9827
▁선	-8.98291
또	-8.98293
들을	-8.98635
▁몇	-8.98671
▁일이	-8.9871
파	-8.9874
▁말도	-8.98772
어차	-8.98881
▁사는	-8.98917
▁벌	-8.99082
▁이제는	-8.99235
▁과연	-8.99256
▁이걸	-8.99353
보단	-8.99355
ᄏᄏᄏᄏᄏᄏ	-8.99402
▁함	-8.99465
▁애플	-8.9948
▁따라	-8.99761
하세요	-8.99764
불	-8.9978
▁언제나	-8.99799
건지	-8.99894
▁월급	-8.99945
▁한달	-8.99948
준	-8.99976
민	-9.00013
▁넌	-9.00259
▁좋	-9.00294
▁장난	-9.00396
슬	-9.00431
""	-9.00465
▁바	-9.00476
▁우리가	-9.00526
석	-9.00529
▁박그네	-9.0063
하니	-9.0066
한데	-9.00873
▁문	-9.00945
레	-9.01299
▁만든	-9.0137
▁감사드립니다	-9.01462
▁연아양	-9.01537
▁아무것도	-9.01561
▁고맙습니다	-9.01607
▁간	-9.0161
년이	-9.01669
▁있을까	-9.01892
▁답	-9.01898
이라니	-9.02096
▁덕분에	-9.02096
▁최고의	-9.02209
▁짱	-9.0233
▁팬	-9.02334
▁받	-9.02389
▁놈	-9.02407
을까	-9.02435
▁감동	-9.02527
반	-9.02733
▁지진	-9.02835
▁국민의	-9.02892
▁ᄃᄃᄃ	-9.02919
꺼	-9.03342
▁할까요	-9.03518
▁말을	-9.03702
▁전라도	-9.03717
▁같아	-9.03833
▁검찰	-9.03965
▁축하드려요	-9.04188
▁느낌	-9.04417
▁않는	-9.04543
마다	-9.04589
종	-9.04689
입	-9.04696
▁그때	-9.0473
없다	-9.04847
많이	-9.04863
▁새누리	-9.04892
▁프로	-9.05163
▁ᄒᄒᄒ	-9.05201
▁니들이	-9.05208
▁올	-9.05312
▁있어요	-9.05711
일이	-9.05877
▁왠지	-9.05915
▁짱깨	-9.05917
▁카톡	-9.05956
▁있음	-9.06019
▁헤어진지	-9.0607
▁절	-9.06142
▁몸	-9.0628
▁연봉	-9.06385
줘서	-9.06521
글	-9.066
▁사과	-9.06748
법	-9.06773
▁먹	-9.06787
▁여기서	-9.06873
▁않고	-9.06923
▁뭐냐	-9.07093
르	-9.07146
▁임신	-9.07297
▁보내	-9.07358
▁취업	-9.07368
▁팀	-9.07587
▁이런거	-9.07661
▁살아	-9.07683
▁기대	-9.07789
▁백	-9.07859
▁문제가	-9.0793
▁일주일	-9.07952
쳐	-9.07977
▁보니까	-9.07993
오빠	-9.08037
기사	-9.08159
▁기아	-9.08178
▁받고	-9.08199
▁나이	-9.08329
토	-9.08369
복	-9.08434
▁축하합니다	-9.08551
▁아예	-9.08606
하다가	-9.08782
분들	-9.0882
새	-9.08835
▁국내	-9.08963
▁이유가	-9.09154
▁저기	-9.09187
▁아는	-9.09281
▁까	-9.0929
점	-9.09336
▁빨갱이	-9.09457
▁있지	-9.09551
▁기분	-9.09686
▁'	-9.09737
▁저희	-9.09746
▁대단한	-9.09856
▁것도	-9.09887
▁그네	-9.10038
▁최순실이	-9.10067
▁네이버	-9.10232
알	-9.10248
▁산	-9.10276
거다	-9.1059
▁멋진	-9.10596
▁놈들	-9.10624
▁롯데	-9.10702
백	-9.10773
이란	-9.10812
?!	-9.10826
인거	-9.10833
▁우와	-9.10856
▁오래	-9.10983
▁순간	-9.1108
▁안된다	-9.11089
▁가지고	-9.11146
▁있을	-9.11209
▁만드는	-9.11274
머	-9.11634
놈	-9.11689
▁하지만	-9.11695
쪽	-9.11819
▁마라	-9.11836
ᄋ	-9.11899
이라는	-9.12166
론	-9.12182
▁속	-9.12246
▁가족	-9.12316
▁사회	-9.12325
기는	-9.12353
▁쉬	-9.12382
▁있고	-9.12386
▁힘	-9.12407
▁빼	-9.12418
▁이해	-9.1247
프로	-9.12618
초	-9.12629
ᄍᄍ	-9.1279
▁함께	-9.12853
체	-9.12904
할까	-9.1291
지금	-9.1293
▁인간들	-9.13021
▁봐도	-9.13045
하니까	-9.13173
~!	-9.13196
▁앞으로도	-9.13251
▁양	-9.13489
▁형	-9.13575
▁강	-9.13755
퍼	-9.13825
▁아기	-9.13862
▁조작	-9.13893
속	-9.14015
으	-9.14044
▁모르는	-9.14332
▁있냐	-9.14384
직	-9.14442
▁구속	-9.14512
~!!	-9.14516
6	-9.146
했던	-9.14648
▁국민들이	-9.14671
▁노력	-9.14736
▁둘이	-9.14736
▁눈물이	-9.15007
▁연	-9.15018
▁그리	-9.15041
프	-9.1507
년동안	-9.15145
되는	-9.15173
▁잡	-9.15332
▁바끄네	-9.15564
작	-9.15621
▁기회	-9.15687
▁범죄	-9.15728
있는데	-9.1587
▁많다	-9.1592
▁현재	-9.15926
▁무서운	-9.15934
▁안하고	-9.15973
하기	-9.15975
▁너무너무	-9.15996
▁친일파	-9.16062
▁내년	-9.16357
▁야구	-9.16374
▁공	-9.16379
는것도	-9.1641
▁보다	-9.16448
군요	-9.16529
▁있네	-9.168
쓰	-9.16824
▁이나라	-9.17116
뭐	-9.17162
역	-9.17344
는지	-9.174
▁여자친구	-9.17402
▁아빠	-9.17489
기를	-9.17592
▁전에	-9.17604
이에요	-9.17826
▁건강	-9.18056
버	-9.18111
▁조만간	-9.18337
친	-9.18446
일까	-9.18523
▁예전에	-9.18589
▁면접	-9.18617
▁LG	-9.18758
가면	-9.18808
▁있을까요	-9.18981
까요	-9.19141
▁밥	-9.19632
덕	-9.19653
▁남자친구가	-9.1969
10	-9.19749
▁받을	-9.19754
▁시즌	-9.19818
▁예	-9.19871
설	-9.19938
▁죽	-9.20132
근	-9.20156
▁음식	-9.20223
▁첨	-9.20402
해야지	-9.20447
온	-9.20487
▁아냐	-9.20586
못	-9.20622
왕	-9.20782
▁지금은	-9.20788
▁ᅳ	-9.20797
▁박정희	-9.20806
양	-9.20836
▁반드시	-9.20889
▁경제	-9.20916
▁차라리	-9.20974
▁민주주의	-9.20977
▁아마	-9.21084
▁이래서	-9.21098
▁ᄏᄏᄏᄏᄏᄏᄏ	-9.21104
▁스트레스	-9.21113
봐	-9.21125
여서	-9.21138
씩	-9.21141
할듯	-9.21164
한번	-9.21187
봐라	-9.21278
▁죄다	-9.21306
▁않은	-9.21319
▁앞	-9.21377
걸로	-9.21381
오늘	-9.21384
!"	-9.21425
▁짓	-9.21679
▁수사	-9.21872
▁하면서	-9.21896
▁싸	-9.21927
▁새끼들	-9.21932
말고	-9.21953
▁것이	-9.21981
제가	-9.22093
▁없음	-9.22122
▁등	-9.22128
▁투수	-9.22185
▁삼	-9.22283
하라	-9.22346
케	-9.22438
▁사람은	-9.22572
들도	-9.22696
▁기사를	-9.22756
골	-9.22881
▁우승	-9.22979
▁꼴	-9.23002
▁따	-9.23051
거지	-9.23089
▁처	-9.2316
지마라	-9.23188
▁연락이	-9.23194
▁""	-9.23304
▁초	-9.23408
염	-9.2342
▁우린	-9.23484
벌	-9.23557
▁있다고	-9.23568
▁들어	-9.23693
▁모르겠네요	-9.23698
▁삼성이	-9.23763
▁힘들	-9.2378
▁물론	-9.23797
▁증거	-9.23894
권	-9.23977
터	-9.23998
되고	-9.24102
현	-9.24108
전에	-9.2417
▁전쟁	-9.24233
▁없지	-9.24253
따	-9.24267
▁ᅮ	-9.2429
울	-9.24419
!!!!!!	-9.24448
순	-9.24483
▁하나요	-9.24553
▁시위	-9.24622
야한다	-9.24749
▁조사	-9.24917
▁좋을까요	-9.24965
▁학교	-9.24975
예	-9.24977
▁여러분	-9.24982
▁하야	-9.25005
투	-9.25031
▁되면	-9.25034
했어요	-9.2508
▁지금까지	-9.2515
부러	-9.25205
이제	-9.25235
▁저게	-9.25288
였	-9.25305
▁정보	-9.25369
▁이재용	-9.25504
ᆞ	-9.2559
▁분들	-9.25647
짐	-9.25672
표	-9.25694
좋은	-9.25715
▁확	-9.2573
▁수고	-9.25896
건가	-9.25926
▁제목	-9.26005
▁돌아가	-9.26026
니다	-9.26051
때마다	-9.26163
▁믿고	-9.26227
▁정권	-9.26465
,,,	-9.26625
살이	-9.2669
▁만들	-9.26745
▁불법	-9.26752
▁이것	-9.2677
▁아들	-9.26774
▁없네요	-9.26808
▁그걸	-9.26865
▁죄송합니다	-9.26931
막	-9.27235
▁한국은	-9.27295
▁집에	-9.27323
▁미안해	-9.27474
▁처럼	-9.2748
▁자체가	-9.27485
▁길	-9.27699
행	-9.27787
▁선수들	-9.27833
~~^^	-9.27911
▁치	-9.28176
▁일어나	-9.28448
▁편	-9.28509
▁남편	-9.28569
될	-9.28597
▁지원	-9.28629
▁사건	-9.28661
.0	-9.28692
에는	-9.28731
▁씨	-9.28737
........	-9.28769
▁해외	-9.2883
▁눈물	-9.28896
▁갓	-9.28972
▁사람도	-9.28975
생각	-9.29054
크	-9.29324
▁축하	-9.29328
▁진정한	-9.29453
▁난리	-9.29464
이상	-9.29503
▁도깨비	-9.29519
▁보수	-9.29544
력	-9.29584
▁멋있다	-9.296
▁것들	-9.29617
▁15	-9.29642
수가	-9.2979
▁OOO	-9.29897
▁유럽	-9.29964
코	-9.29989
▁못하는	-9.29994
▁18	-9.30159
▁된	-9.30207
▁200	-9.30256
▁기분이	-9.30267
▁집에서	-9.30517
▁한국에	-9.30561
▁이슬람	-9.3066
▁느낌이	-9.30807
들어	-9.30826
▁없어요	-9.30839
카	-9.31128
▁할지	-9.31161
강	-9.31185
▁죽어	-9.31226
▁결정	-9.31304
▁이러다	-9.31304
▁토	-9.31587
▁그런가	-9.31697
거임	-9.31733
▁지나	-9.31783
▁입니다	-9.31865
▁세상에	-9.32133
▁대구	-9.32263
▁나만	-9.32289
▁알았는데	-9.32322
▁연아선수	-9.32394
▁멋지다	-9.32455
▁고민이	-9.3248
▁힘들다	-9.32653
가지고	-9.32706
▁좋은데	-9.32803
▁나가	-9.32838
▁전세계	-9.33027
▁그것	-9.33114
봐야	-9.33136
▁병	-9.33246
▁암	-9.33267
주세요	-9.33274
▁분명	-9.33294
▁비리	-9.33385
▁지금도	-9.33486
▁우리는	-9.335
수준	-9.33603
▁알아	-9.33632
하나요	-9.33687
▁정리	-9.33706
▁더러운	-9.33834
판	-9.33928
포	-9.34023
▁대해	-9.34065
▁수도	-9.34071
▁걱정이	-9.34114
▁그러	-9.34245
▁얼굴이	-9.34253
▁음	-9.34301
티	-9.34417
▁것을	-9.3464
▁결과	-9.34667
▁싫다	-9.3499
및	-9.35066
▁배터리	-9.35215
▁어케	-9.35227
림	-9.35246
▁응원	-9.35249
▁옷	-9.35367
9	-9.3538
▁들고	-9.35399
▁그러면	-9.3541
▁당연히	-9.35441
▁같아서	-9.35466
새끼	-9.3575
때부터	-9.35769
▁패	-9.35823
▁아무도	-9.35959
▁쓰는	-9.35973
▁진	-9.36013
▁뭐라고	-9.36382
외	-9.36388
채	-9.36435
어떻게	-9.36486
▁부산	-9.36599
▁내년에	-9.36682
▁옆에	-9.36686
증	-9.36991
▁봤는데	-9.37182
▁순시리	-9.37372
▁인터넷	-9.37459
~~~~~	-9.37465
▁생	-9.37525
▁외	-9.37535
▁힘들어	-9.37651
께	-9.37828
▁백선생님	-9.37875
▁동	-9.37875
▁쪽바리	-9.37918
한게	-9.37965
▁죽을	-9.38095
▁팔	-9.38123
어야	-9.38133
▁가만히	-9.38224
▁보통	-9.38368
▁다이어트	-9.38394
했으면	-9.38409
▁망	-9.38452
▁연예인	-9.38485
▁친구들	-9.38561
▁축하드립니다	-9.38654
하지만	-9.38681
▁밤	-9.3869
▁대부분	-9.38716
텐데	-9.38754
망	-9.38761
▁인	-9.3881
끼	-9.38854
▁행동	-9.38877
▁본인	-9.38879
들에게	-9.38897
▁여성	-9.38906
▁인성	-9.39037
▁문자	-9.39074
▁40	-9.39075
▁나한테	-9.39132
▁추	-9.39138
쯤	-9.39165
▁끝	-9.39207
▁거지	-9.39224
▁모습이	-9.39271
주는	-9.39276
▁쥐	-9.39303
녀	-9.39325
▁돼지	-9.39384
▁크	-9.39429
▁남친	-9.39449
▁이해가	-9.3947
▁되어	-9.39496
▁오늘은	-9.39566
▁나오면	-9.39624
느라	-9.39683
▁쓸	-9.39807
키	-9.39956
▁있다는	-9.39995
▁저한테	-9.40026
학	-9.40036
▁21	-9.40114
▁힘이	-9.40212
▁가면	-9.40237
보는	-9.40243
▁축구	-9.40466
돌	-9.40526
▁독	-9.40564
▁영	-9.40908
▁국민들은	-9.41031
▁맨유	-9.41089
▁우리도	-9.41121
▁슬	-9.41153
▁두산	-9.41183
패	-9.41186
▁없다고	-9.41199
할수	-9.41273
▁대학	-9.41298
▁이리	-9.41354
▁훨씬	-9.41418
▁스마트폰	-9.41419
▁노무현	-9.41423
▁그나마	-9.41487
▁있	-9.41491
시고	-9.41553
▁한마디	-9.41685
▁스	-9.41748
▁현실	-9.41979
▁그저	-9.4198
지는	-9.4198
▁힘들어요	-9.42095
볼	-9.42158
▁골	-9.42168
▁재산	-9.42184
▁뭐지	-9.4222
▁기본	-9.42276
▁아침에	-9.42573
▁되나요	-9.42684
▁너무나	-9.42695
▁헤어지고	-9.42756
▁친	-9.42827
▁사기	-9.42896
▁부모님	-9.42925
▁국회의원	-9.42935
▁개인	-9.42942
희	-9.42964
하려	-9.43044
는거지	-9.43143
▁기억	-9.43351
태	-9.43566
▁우병우	-9.43594
▁될까요	-9.4367
편	-9.43762
▁뒤에	-9.43896
▁여자들	-9.43924
▁손흥민	-9.44114
담	-9.44145
▁뭐라	-9.44237
잖아요	-9.44499
▁피해	-9.44513
▁핵	-9.44538
▁감	-9.44562
▁사용	-9.4466
..0	-9.44689
▁보면서	-9.44727
고싶다	-9.4473
▁얘	-9.44773
▁태어나	-9.44815
▁메시	-9.4489
▁많은데	-9.44923
짱	-9.44931
/	-9.44935
아닌가	-9.44938
만명	-9.44938
▁운전	-9.44983
▁만약	-9.45137
▁오히려	-9.45138
다는	-9.45262
▁오바마	-9.45265
▁프로그램	-9.45351
다시	-9.45382
▁일베	-9.45388
▁관심	-9.45399
것들	-9.45429
▁일을	-9.45556
▁필요	-9.45565
▁11	-9.45567
했다고	-9.45658
약	-9.45668
▁처벌	-9.45726
▁ᄒᄃᄃ	-9.4582
▁많아서	-9.45859
여자	-9.45895
업	-9.45905
▁역	-9.45971
▁덜	-9.45973
▁천	-9.46049
던지	-9.46082
▁겨울	-9.46083
▁같음	-9.46086
아니라	-9.46182
시다	-9.4622
▁이상한	-9.4625
눈	-9.46351
▁일본은	-9.46388
▁최	-9.46468
▁존재	-9.46532
▁써	-9.46552
▁사람들은	-9.46557
겠냐	-9.46576
▁자리	-9.46747
,,	-9.4678
▁오늘도	-9.46865
만한	-9.47174
▁하자	-9.472
▁어린	-9.47336
▁헌재	-9.47421
절	-9.47503
▁하다	-9.47749
▁상황	-9.47785
▁저리	-9.47833
테	-9.47893
▁뜨	-9.47896
▁안하면	-9.47911
는건가	-9.48036
▁고마워	-9.48049
▁미래	-9.48068
▁김기춘	-9.48143
▁실	-9.48151
▁나온	-9.48175
악	-9.48208
▁받아	-9.4822
▁번	-9.48311
▁돈으로	-9.48362
이렇게	-9.48396
▁전혀	-9.48517
▁클라스	-9.48604
▁새누리당	-9.4865
▁반대	-9.48651
▁생각보다	-9.48652
▁더욱	-9.48706
▁변호사	-9.48777
▁되는거	-9.4878
▁되고	-9.48784
▁맞	-9.48848
▁지내	-9.48866
▁시험	-9.48898
할까요	-9.48938
▁다리	-9.48986
▁좋아요	-9.49005
??????	-9.4906
▁500	-9.4908
듯이	-9.49135
간다	-9.49139
▁특히	-9.49201
야지	-9.49365
▁설	-9.49375
▁괜찮	-9.49413
값	-9.49552
너	-9.49595
애들	-9.4965
랄	-9.49664
록	-9.49718
락	-9.49738
▁개소리	-9.4976
▁아니지	-9.49763
▁하세요	-9.49891
▁모르고	-9.499
있다	-9.4996
▁여자친구가	-9.50068
려나	-9.50161
많은	-9.50174
▁티비	-9.5018
▁젤	-9.50422
교	-9.50436
▁허	-9.50506
▁많아	-9.50509
▁하나도	-9.50591
▁걸리	-9.50684
명이	-9.50744
▁생리	-9.50777
▁공무원	-9.50824
기에	-9.50913
▁인정	-9.50928
▁예상	-9.50934
▁위한	-9.50943
▁수준이	-9.51139
▁핸드폰	-9.51168
▁남친이	-9.51347
▁위	-9.51355
년은	-9.51719
▁위안부	-9.51747
탄	-9.51827
▁설치	-9.51906
▁알았다	-9.52041
▁자식	-9.52042
▁교육	-9.52044
▁청문회	-9.52068
▁무한도전	-9.52068
▁적	-9.52101
시켜라	-9.52114
지고	-9.52126
▁확인	-9.52174
▁고생	-9.52197
▁어휴	-9.522
▁인사	-9.52231
▁아베	-9.52241
합시다	-9.52262
▁많	-9.52318
▁아버지	-9.52425
▁이정도면	-9.52457
내가	-9.52519
▁수비	-9.52562
수록	-9.5261
▁이럴	-9.52613
▁총	-9.52659
▁아이들	-9.52667
▁나와	-9.52799
▁300	-9.52818
▁싶은데	-9.52872
▁그렇고	-9.52898
있나	-9.52909
성이	-9.52915
▁태극기	-9.53074
▁이야기	-9.53097
▁남의	-9.53162
▁나와서	-9.53172
▁나서	-9.53177
▁아니야	-9.53197
▁그런거	-9.5322
▁ᄌ	-9.53296
▁만세	-9.53393
20	-9.53444
열	-9.53517
도록	-9.53623
▁뭐야	-9.53652
▁(	-9.53658
▁잘하고	-9.53725
이네요	-9.53789
▁한다고	-9.53863
▁힘든	-9.5388
▁돈을	-9.53881
주면	-9.53886
▁생각도	-9.5393
▁없으면	-9.5397
▁가지	-9.54035
▁새끼	-9.54185
나서	-9.542
두고	-9.54206
▁중요한	-9.54341
▁정도로	-9.54358
▁무지	-9.54376
▁코	-9.54492
연기	-9.54641
류	-9.54667
▁끝이	-9.54687
올	-9.54792
ᄃ	-9.54799
▁본다	-9.54812
메	-9.5483
족	-9.54879
잉	-9.54945
▁똑같은	-9.5495
에요	-9.5499
▁돌	-9.5504
▁심판	-9.55096
없	-9.55205
▁가끔	-9.55303
▁아파	-9.55325
죽	-9.55382
찬	-9.55387
하는건	-9.55401
였는데	-9.55422
▁부모	-9.55436
▁존경합니다	-9.55493
▁않나	-9.55506
▁쓴	-9.55542
▁jtbc	-9.55542
▁젊은	-9.55608
▁선택	-9.5561
▁개돼지	-9.55656
범	-9.5568
▁선동	-9.55714
▁비가	-9.55814
▁애기	-9.55888
▁아침	-9.55928
▁있구나	-9.55967
보니까	-9.5602
른	-9.5603
에도	-9.56128
▁아닌지	-9.56137
아님	-9.56194
머리	-9.56207
기전에	-9.56212
▁모르겠다	-9.56355
일까요	-9.56384
▁알아서	-9.56467
▁동네	-9.56474
▁안돼	-9.56506
▁박근혜가	-9.56588
▁악	-9.5661
▁이쁜	-9.56654
▁신고	-9.56746
▁맘	-9.5679
같다	-9.56869
▁가슴이	-9.569
아니	-9.57137
▁누나	-9.57323
▁찍	-9.57376
새끼들	-9.57411
▁인간이	-9.57426
▁떠	-9.57467
▁나온다	-9.57509
만에	-9.57608
▁갔다	-9.57696
▁못할	-9.57724
▁양아치	-9.57805
팀	-9.57826
▁12	-9.57892
▁화	-9.5818
▁맞는	-9.58196
▁비교	-9.58298
▁아이가	-9.58347
▁그럴	-9.58396
▁웃	-9.58447
▁싶은	-9.58552
▁바보	-9.58567
기업	-9.58581
▁먼	-9.58619
▁책임	-9.5862
▁ᄃ	-9.58655
▁폐지	-9.587
년에	-9.58756
▁와서	-9.58761
▁진실	-9.58776
▁언니	-9.58864
답	-9.58867
▁친구가	-9.58872
▁변	-9.58879
사람이	-9.58964
사람은	-9.58999
▁재미	-9.59088
욕	-9.59125
거같은데	-9.59128
말로	-9.59128
▁가슴	-9.59244
▁눈이	-9.5927
▁야당	-9.59277
▁순	-9.59296
▁위해서	-9.59331
▁저만	-9.5938
▁아름다운	-9.59393
걸까요	-9.59407
▁담배	-9.59409
▁자살	-9.59483
▁차우찬	-9.59515
▁대단	-9.59641
▁레시피	-9.59642
▁싹	-9.59651
▁매	-9.59714
▁없습니다	-9.5973
▁에휴	-9.59768
▁광고	-9.59818
했습니다	-9.59836
▁새해	-9.59853
▁고민입니다	-9.59906
ᄏᄏᄏᄏᄏᄏᄏᄏ	-9.59908
▁있게	-9.59975
▁대한민국은	-9.59982
▁검사	-9.59988
▁썩은	-9.60007
▁맞아	-9.6002
▁광화문	-9.60039
▁24	-9.60066
만이	-9.6013
것이	-9.60161
근데	-9.60221
▁의미	-9.60242
자가	-9.6031
▁답이다	-9.60335
▁담	-9.60337
▁기레기	-9.60375
▁박근혜는	-9.60445
▁이기	-9.60554
▁한국인	-9.60577
▁많네	-9.60676
▁작은	-9.60709
▁방법	-9.60723
▁내용	-9.60772
했어	-9.60858
주의	-9.6105
량	-9.61054
▁눈에	-9.6114
▁관리	-9.61171
져서	-9.61321
▁또라이	-9.61408
▁난다	-9.61424
▁호구	-9.61445
▁병원	-9.6146
▁땅	-9.61501
▁국	-9.61597
▁-	-9.61613
▁있는지	-9.61626
▁가는	-9.61909
언	-9.61948
▁양심	-9.62006
▁단통법	-9.62098
▁해야지	-9.6211
▁할수	-9.6215
▁아줌마	-9.62186
▁아닌가요	-9.62212
▁포	-9.6222
▁경	-9.62277
▁속이	-9.62299
하러	-9.62373
▁재밌	-9.62398
이라서	-9.62518
▁정상	-9.62604
▁모른다	-9.62684
▁김성근	-9.62733
▁것이다	-9.62751
▁종북	-9.62751
▁나올	-9.6276
▁필리핀	-9.62934
▁용기	-9.62955
늘	-9.62977
▁달	-9.63146
인간	-9.632
▁메	-9.63207
고민	-9.63208
▁말은	-9.63211
▁남자들	-9.63242
▁살기	-9.63252
▁개발	-9.63304
▁개뿔	-9.63329
▁위증	-9.6333
▁지들	-9.63375
있어요	-9.634
▁무능한	-9.63402
써	-9.63429
▁오라버니	-9.63523
▁하루종일	-9.63523
▁잘한다	-9.63526
나보네	-9.63547
▁졸	-9.63592
독	-9.63671
▁바람	-9.63728
▁고맙고	-9.63785
▁힘들게	-9.63816
▁집회	-9.63932
▁통	-9.64037
해야한다	-9.64071
일본	-9.64099
▁G	-9.64116
▁짱개	-9.64141
▁힘들고	-9.64177
▁아이유	-9.6418
▁크게	-9.64213
▁공유	-9.64323
▁놈들이	-9.64365
▁생각하는	-9.64404
▁기술	-9.64466
▁얘는	-9.64497
▁먹는	-9.64523
▁예전	-9.64567
▁생활	-9.64616
▁보고싶다	-9.6466
▁군인	-9.64703
▁구라	-9.64724
나는	-9.64782
시켜	-9.64793
▁받는	-9.64827
▁ᄏᄏᄏᄏᄏᄏᄏᄏᄏ	-9.6484
▁않는다	-9.64871
▁못하게	-9.64929
;;;;	-9.64972
뿐	-9.65077
▁대신	-9.65111
▁심	-9.65261
▁찾아	-9.6531
▁여친	-9.65428
해주셔서	-9.65636
▁주고	-9.65708
▁말씀	-9.65875
통	-9.65967
▁버리고	-9.66191
▁나라에서	-9.66261
각	-9.66268
철	-9.66323
▁한국에서	-9.66358
▁곳	-9.66381
▁둘	-9.66459
없어	-9.66547
▁돈은	-9.66572
▁아는데	-9.66654
▁가수	-9.66677
봄	-9.66704
▁이딴	-9.66711
색	-9.66716
빠	-9.66742
창	-9.66752
▁듣고	-9.66793
기만	-9.6699
▁병신	-9.66991
▁내려	-9.67021
▁뇌	-9.67046
하려고	-9.6716
▁쓰레기들	-9.67175
▁명	-9.67194
▁동물	-9.67222
▁있네요	-9.67278
일에	-9.67329
▁휴가	-9.6734
▁하루하루	-9.67363
_	-9.67452
▁무기징역	-9.67486
▁음악	-9.67497
▁후회	-9.67501
▁갤럭시	-9.67562
거같다	-9.67577
▁않아	-9.67604
▁니네	-9.67625
▁중국이	-9.67634
▁그렇지	-9.67649
▁스스로	-9.67698
에겐	-9.67718
영화	-9.67809
▁런닝맨	-9.67837
▁언제부터	-9.67858
▁몸매	-9.67868
▁악플	-9.67869
!!!!!!!!	-9.67881
보다는	-9.6789
▁ᄍᄍᄍ	-9.67891
▁엄청난	-9.67935
▁실제로	-9.67989
▁60	-9.68005
정부	-9.68108
▁이별	-9.68186
▁로봇	-9.68239
▁작품	-9.6826
▁같네요	-9.68266
▁삶	-9.68301
▁적어	-9.68306
▁쓰고	-9.68361
▁경우	-9.68388
▁해체	-9.68432
▁범죄자	-9.6847
▁타고	-9.6849
한국	-9.6849
는걸	-9.68526
을때	-9.68587
▁반기문	-9.68611
▁찬성	-9.6862
▁뒤	-9.68627
걱정	-9.68661
▁장관	-9.68682
▁미국이	-9.68746
▁티	-9.68779
으니까	-9.68861
▁요즘은	-9.68992
▁이미지	-9.69031
▁미국은	-9.6912
▁한데	-9.69129
▁안되	-9.69143
▁되네요	-9.69182
▁충격	-9.692
즈	-9.69201
▁정말로	-9.69221
▁답이	-9.69302
▁그건	-9.69431
했네	-9.69435
▁의사	-9.69631
▁행복	-9.69683
▁순실	-9.69717
안에	-9.69877
▁한거	-9.70001
▁맞다	-9.70026
▁선물	-9.70076
▁복	-9.70144
했는지	-9.70164
▁무서워	-9.7017
되서	-9.7028
▁판	-9.70298
▁그날	-9.70305
추	-9.70307
▁나오	-9.70311
▁여러	-9.7037
돼	-9.70372
▁상상	-9.70406
▁끼	-9.70497
▁주셔서	-9.70512
▁키	-9.7058
▁있는게	-9.70592
▁방법이	-9.70631
▁뿐	-9.70635
▁발전	-9.70728
주셔서	-9.70779
▁매국노	-9.70801
▁머리가	-9.70801
▁당연한	-9.70869
더만	-9.70896
기로	-9.70984
▁됨	-9.71004
박근혜	-9.71034
▁버	-9.71118
을텐데	-9.71121
이번엔	-9.71122
▁글을	-9.71126
▁닭그네	-9.71192
닭	-9.71429
▁살고	-9.71433
▁있는거	-9.71526
▁새로운	-9.71544
ᄏᄏᄏᄏᄏᄏᄏ	-9.71564
요ᅲᅲ	-9.71597
좋아	-9.71599
▁지지	-9.71613
▁외국	-9.71662
▁자연	-9.71666
▁목	-9.71713
▁19	-9.7189
▁대놓고	-9.71908
▁실패	-9.71931
▁부터	-9.71981
▁국민은	-9.72036
▁왜이리	-9.72042
▁영원히	-9.72056
▁일반	-9.7206
▁조용히	-9.72077
출	-9.72089
▁똑같이	-9.72097
하라고	-9.72139
▁기록	-9.72154
▁분위기	-9.72203
넘들	-9.72234
▁역대	-9.72275
▁조언	-9.72297
▁활동	-9.72333
▁쫌	-9.72345
▁늦게	-9.72367
▁더이상	-9.72379
▁능력	-9.72388
격	-9.72439
▁조선	-9.72484
▁캬	-9.72491
는거야	-9.72571
▁여름	-9.72624
련	-9.72687
빨	-9.72711
▁먹어	-9.72748
▁화장	-9.72775
▁힘내세요	-9.72787
▁현	-9.72788
잔	-9.72817
ᄌ	-9.7285
▁하긴	-9.7287
징	-9.72885
▁사형	-9.72915
ᄉ	-9.72967
▁했던	-9.72967
▁무서워서	-9.72979
같	-9.73131
옷	-9.73155
려서	-9.73161
대요	-9.732
이거	-9.73211
???????	-9.73221
▁퇴근	-9.733
▁했다	-9.73335
!!!!!!!	-9.73336
▁출근	-9.7334
팅	-9.73375
아닌데	-9.73389
하여	-9.7341
▁다르	-9.73456
▁세금으로	-9.73477
▁S	-9.73498
▁한번도	-9.73548
사진	-9.73596
▁만나	-9.73658
▁네	-9.7366
▁이래	-9.73666
오면	-9.73725
▁포켓몬	-9.73762
애들이	-9.7379
허	-9.73818
형님	-9.73826
▁고소	-9.73969
▁매력	-9.74121
▁어째	-9.74179
ᄃᄃᄃ	-9.74192
▁제품	-9.74201
▁너도	-9.74257
▁독일	-9.74305
ᄒᄒᄒ	-9.74374
겠군	-9.74476
▁세븐틴	-9.74527
▁그런지	-9.7459
▁하니	-9.74659
▁조윤선	-9.74672
▁악마	-9.7479
▁저랑	-9.748
데요	-9.7483
▁급	-9.74863
▁반성	-9.74936
▁풀	-9.74965
▁카페	-9.74974
▁계란	-9.75014
는건지	-9.7502
스러운	-9.75061
워	-9.75082
▁엄마가	-9.75103
셔	-9.75113
▁우리의	-9.75136
▁수술	-9.75232
▁레전드	-9.75252
▁칼	-9.75328
▁ᅲᅲᅲᅲ	-9.75365
▁광주	-9.75391
▁인간들이	-9.75445
▁따로	-9.75511
척	-9.75637
▁전기	-9.75639
▁진정	-9.75738
▁합시다	-9.75762
▁이대	-9.75969
탈	-9.76044
거냐	-9.7605
▁가는데	-9.76073
놈들이	-9.76123
시키고	-9.76138
▁성공	-9.76176
▁비행기	-9.76199
▁맛있	-9.76202
▁가능	-9.76223
▁형님	-9.7628
이든	-9.76328
▁힐러리	-9.76379
▁에어컨	-9.7638
▁영국	-9.76409
▁은근	-9.7642
▁약간	-9.76438
▁시발	-9.76445
▁계약	-9.76479
결	-9.76533
곳	-9.76558
▁미개한	-9.76564
▁요새	-9.7661
▁레알	-9.76622
겁니다	-9.7663
▁팬들	-9.76634
▁없을까요	-9.76719
게임	-9.76748
▁승리	-9.76787
▁대가리	-9.76898
▁어떡하죠	-9.76924
쉬	-9.76924
▁문제는	-9.77029
▁미리	-9.77062
▁으	-9.7707
대박	-9.77088
시간이	-9.77151
▁예보	-9.77224
큰	-9.77227
봤는데	-9.77277
▁있었는데	-9.7736
리고	-9.77368
▁표정	-9.77455
▁몰라도	-9.7746
었어요	-9.7759
ᄀ	-9.77591
배우	-9.77658
어떤	-9.77707
▁마약	-9.77724
▁좋고	-9.77747
었던	-9.77799
▁새로	-9.77801
▁선수가	-9.77832
암	-9.77887
................	-9.77899
▁이러다가	-9.77937
▁같고	-9.77976
더라고요	-9.77985
화이팅	-9.77985
얼굴	-9.78028
▁차단	-9.78111
자들	-9.78129
▁A	-9.78154
받고	-9.78352
문제	-9.78417
▁하던데	-9.78588
놈이	-9.78697
더군요	-9.78708
들고	-9.78858
▁맘이	-9.78989
▁않을	-9.79013
알바	-9.7908
▁모르	-9.79128
릴	-9.7917
아서	-9.79318
▁배가	-9.79349
▁먹으면	-9.79361
쓰고	-9.79362
▁:	-9.79521
하긴	-9.79546
팬	-9.79633
▁이쁘	-9.7977
▁되는데	-9.79773
▁도움	-9.79813
있고	-9.79826
▁무서워요	-9.79865
▁가고	-9.79872
잡	-9.79962
▁욕하는	-9.79965
▁감정	-9.80057
아니냐	-9.80091
엇	-9.80091
▁법을	-9.80101
자나	-9.80123
▁호	-9.80251
보자	-9.80254
죄	-9.80309
♡♡	-9.80322
▁뛰	-9.80403
▁시청률	-9.80441
^	-9.80476
▁예능	-9.80523
이래	-9.8054
▁먹을	-9.80543
▁하기	-9.80568
▁태풍	-9.80597
▁살이	-9.80697
▁귀	-9.80712
하던	-9.80791
▁죽여	-9.80805
▁13	-9.80952
▁동생	-9.80985
▁꿈	-9.81042
▁근혜	-9.81072
▁그러다	-9.81072
▁프랑스	-9.81141
▁고등어	-9.81141
다른	-9.81146
▁어깨	-9.81155
▁매우	-9.81177
▁언플	-9.81232
▁밀	-9.81245
이참에	-9.81271
▁피부	-9.81286
▁부담	-9.81287
▁친일	-9.81299
봉	-9.81343
▁무섭네요	-9.81347
▁생각하면	-9.81353
▁헉	-9.81385
▁편의점	-9.81386
▁지가	-9.81516
▁이럴때	-9.8153
▁금	-9.81532
난다	-9.81533
▁황교안	-9.81544
키로	-9.81617
▁강제	-9.81663
▁알았네	-9.81666
▁있으니	-9.81674
▁하시는	-9.8168
▁저녁	-9.81726
▁종교	-9.81745
▁질	-9.81769
있으면	-9.81775
▁뜻	-9.81785
▁거기서	-9.81836
▁없지만	-9.81855
▁너가	-9.81877
▁언제까지	-9.81889
▁나라는	-9.819
것같다	-9.81903
▁돈만	-9.81933
▁않네요	-9.8194
네여	-9.8194
▁착한	-9.81985
최고	-9.82019
필	-9.82032
▁되겠네	-9.82112
▁빼고	-9.82117
▁영상	-9.82129
▁감독님	-9.82137
▁봅니다	-9.82188
▁너희들	-9.82202
▁혹시나	-9.82371
내고	-9.82452
였다	-9.82522
하시는	-9.82575
ᄂ	-9.8258
▁입만	-9.82637
▁돼	-9.82645
▁있지만	-9.82645
▁한명	-9.82684
될까요	-9.82737
안하고	-9.82762
▁판사	-9.82779
▁하냐	-9.82786
ᅵ	-9.82921
▁다니는	-9.82923
조차	-9.82986
▁정책	-9.82988
~~!!	-9.83004
▁멀	-9.83049
준비	-9.8306
▁되게	-9.8307
같은거	-9.83087
▁어디에	-9.83147
▁스타	-9.83222
▁많고	-9.83248
▁안보	-9.83371
▁잘해	-9.83433
거리	-9.83563
▁아니라고	-9.8367
때까지	-9.83697
▁아이고	-9.83751
▁저것들	-9.83791
▁모습을	-9.83803
변	-9.83873
▁하루에	-9.83873
팔	-9.84046
▁새벽	-9.84137
▁테러	-9.84298
▁방	-9.84348
▁표	-9.84389
▁싫어	-9.84444
▁비싼	-9.84457
▁충전	-9.84472
▁공개	-9.84659
워서	-9.84663
▁외모	-9.84888
일듯	-9.85027
칠	-9.85057
타고	-9.85165
ᅲᅮ	-9.85173
있나요	-9.8528
을듯	-9.85382
손	-9.85383
▁나라에	-9.85506
▁몰라	-9.8554
▁같	-9.85547
▁시켜라	-9.85594
는거냐	-9.85643
▁세상이	-9.85681
한다는	-9.85683
▁살인	-9.85698
국민을	-9.85762
▁사귀	-9.85807
▁의심	-9.85856
▁무리	-9.85887
▁자유	-9.85996
▁학원	-9.86014
▁복귀	-9.86016
있어	-9.86033
▁가야	-9.86065
▁갈수록	-9.86165
▁직접	-9.86209
▁국정원	-9.8622
▁여행	-9.86226
▁빕니다	-9.86236
▁송중기	-9.86236
▁힘든데	-9.86239
▁고작	-9.86272
▁오는	-9.86298
겠네요	-9.86398
▁명복을	-9.86398
▁ᄅᄋ	-9.864
▁너네	-9.8642
▁간다	-9.86421
▁역대급	-9.8647
▁여기가	-9.86483
▁이정도	-9.8649
▁모르게	-9.86504
▁오랜만에	-9.86569
▁질문	-9.86579
▁90	-9.86639
힘	-9.86643
▁홍	-9.86689
▁대한민국을	-9.86724
▁홧팅	-9.86734
▁제주도	-9.86769
사람들	-9.86805
▁아닐까	-9.86856
리는	-9.86889
▁좌파	-9.86898
겠습니다	-9.869
버리고	-9.86906
▁좋네요	-9.86945
자고	-9.86967
▁직장	-9.86986
삼	-9.8702
우리	-9.87036
▁안녕하세요	-9.87114
커	-9.87133
▁불러	-9.8715
김	-9.87157
ᅮᅲ	-9.87218
▁맘에	-9.87231
▁자체	-9.87259
▁승	-9.87287
▁이유는	-9.87299
요즘	-9.87368
▁널	-9.87368
▁아니지만	-9.87373
▁참여	-9.87376
해주세요	-9.87377
▁가져	-9.87379
빨리	-9.87392
▁기억이	-9.87442
▁못한다	-9.87603
▁재벌	-9.87618
▁생각을	-9.87651
▁찍어	-9.87727
년만	-9.87766
향	-9.8783
▁뭔지	-9.87938
▁관	-9.87977
▁올리	-9.88003
▁ᄏᄏᄏᄏᄏᄏᄏᄏᄏᄏ	-9.88087
▁일하는	-9.88143
것같아요	-9.88282
침	-9.88409
말이	-9.88419
▁크다	-9.88476
▁접	-9.885
▁나를	-9.8857
▁삼성에서	-9.88573
▁선진국	-9.88632
▁왜케	-9.88641
▁몸이	-9.88647
▁없애	-9.88663
본다	-9.88681
이지만	-9.8871
▁받아서	-9.88789
▁마음을	-9.888
▁휴	-9.8887
거에요	-9.88899
▁법이	-9.88928
▁짜	-9.88952
꼴	-9.89022
에서는	-9.89026
▁촬영	-9.89108
하지말고	-9.89139
▁희망	-9.89225
▁모아	-9.89264
감이	-9.89371
▁해주세요	-9.89409
▁극	-9.89413
▁끌고	-9.89427
▁연기도	-9.89467
▁했	-9.89614
▁주사	-9.89629
▁원숭이	-9.8969
▁정신병자	-9.89726
누	-9.89747
중국	-9.89756
▁받으면	-9.89758
▁어느정도	-9.89767
▁뭐든	-9.89768
▁실력	-9.89866
▁이제야	-9.89973
사는	-9.89992
▁진짜로	-9.90016
했음	-9.90018
분이	-9.9002
▁무엇	-9.9003
움	-9.90035
령	-9.90072
▁이어	-9.9021
▁변명	-9.90233
▁오빠들	-9.90278
▁레	-9.90311
▁인기	-9.90344
곤	-9.90373
년도	-9.90394
▁후보	-9.90424
▁애들이	-9.90484
▁미안하다	-9.9049
▁부르	-9.90662
규	-9.90672
예요	-9.90738
▁무대	-9.90772
▁인터뷰	-9.90824
▁무섭	-9.90841
스트	-9.90843
▁작년	-9.90959
▁것들이	-9.90971
▁상처	-9.91009
▁말하는	-9.91011
▁쪽	-9.91045
▁음주운전	-9.91049
▁편지	-9.91056
▁어쩔	-9.91089
▁ᄏᄏᄏᄏᄏᄏᄏᄏ	-9.91095
▁얼마전	-9.91138
▁쇼	-9.9116
드라	-9.91161
▁몰	-9.91252
▁최소	-9.91253
년전	-9.91271
▁통신사	-9.91273
집니다	-9.91355
▁허벅지	-9.91359
▁김종민	-9.91382
▁아시아	-9.91391
▁JTBC	-9.91404
▁정신나간	-9.91408
▁목소리	-9.91418
▁하여간	-9.91423
▁신기하다	-9.9143
▁인천	-9.91439
▁김연아	-9.91444
▁나름	-9.91457
▁이민호	-9.91477
▁유전자	-9.91479
▁좋습니다	-9.91482
만해도	-9.9149
▁휴대폰	-9.91504
▁그림	-9.91515
받	-9.91531
하신	-9.91531
▁다시한번	-9.9154
▁소식	-9.91547
▁최악의	-9.91579
▁사드	-9.91595
▁눈치	-9.91623
▁겨우	-9.91675
▁얼른	-9.91681
▁물건	-9.91686
...........	-9.91711
구먼	-9.91786
보내	-9.91798
맛	-9.91825
▁지하철	-9.9185
▁비슷한	-9.91852
겠지만	-9.91867
▁일찍	-9.91881
▁투자	-9.91884
▁못해	-9.91885
▁고백	-9.9189
▁애초	-9.9195
▁구라청	-9.91984
▁치킨	-9.92032
▁터지면	-9.92087
▁걱정이네요	-9.92112
▁리콜	-9.92139
▁없나요	-9.92164
▁외국인	-9.92176
▁부상	-9.92242
었으면	-9.92338
▁너희	-9.92352
▁안되는데	-9.9236
▁차이	-9.92374
▁데리고	-9.92392
▁없냐	-9.92393
둘	-9.92404
꾸	-9.92415
▁기자님	-9.92447
▁국회	-9.92465
▁받은	-9.92501
별	-9.92535
▁윤	-9.92542
얘기	-9.92557
▁하늘	-9.9256
▁그러니	-9.92567
▁잠	-9.92613
▁16	-9.92663
갑	-9.92693
▁깔	-9.92729
▁남은	-9.92787
▁외교	-9.92837
▁본인이	-9.92854
송	-9.9286
▁탈	-9.92906
▁해외여행	-9.92916
▁아프	-9.92952
▁뽑아	-9.92977
▁몇번	-9.93001
시키	-9.93067
▁가격	-9.93086
▁ᄍ	-9.93092
▁작가	-9.93192
하더니	-9.93199
▁속도	-9.93211
자마자	-9.93219
시에	-9.93242
존	-9.93264
▁닭년	-9.93288
▁하더라구요	-9.93333
▁산다	-9.93359
곡	-9.93369
▁맞지	-9.9337
하지마라	-9.93374
싸	-9.93406
▁만나서	-9.93428
것이다	-9.93451
▁기다리	-9.93453
빵	-9.93523
욱	-9.93547
▁가격이	-9.93645
딸	-9.93731
항상	-9.938
풀	-9.93835
경기	-9.93855
되는데	-9.9399
▁해결	-9.93992
남자	-9.93992
▁집단	-9.94019
▁안좋아	-9.94039
▁갔	-9.94071
그래서	-9.94155
▁피눈물	-9.94178
▁됩니다	-9.94202
▁설현	-9.94299
▁환불	-9.94328
시작	-9.94359
▁손에	-9.94364
▁멋지	-9.94366
▁;;	-9.94378
▁알지	-9.94441
▁올라	-9.94489
청	-9.94491
▁앞에서	-9.9452
▁이사람	-9.94546
▁달라	-9.94625
▁나이가	-9.9464
▁존경	-9.94658
▁망할	-9.94724
▁오후	-9.94819
!!"	-9.94822
▁여자는	-9.94872
하겠네	-9.9488
▁ᅵ	-9.94915
▁부탁	-9.94923
▁있었	-9.94984
감사합니다	-9.95037
▁가라	-9.95062
▁보이는	-9.95075
님들	-9.95092
▁청	-9.95134
▁몇년	-9.95176
▁심각한	-9.95285
▁해요	-9.95303
▁생긴	-9.95316
것들이	-9.9533
▁옛날	-9.95505
▁혼	-9.95592
▁그렇다	-9.95604
▁기부	-9.95639
▁저를	-9.95678
▁소름	-9.95735
▁벗	-9.95744
▁~~	-9.95784
돈으로	-9.95821
▁알바들	-9.95869
▁거기	-9.95954
▁분노	-9.9598
이게	-9.96123
▁더럽	-9.96136
사가	-9.96215
순간	-9.96218
▁없을	-9.96223
▁하는지	-9.96258
▁쉬운	-9.96354
가는데	-9.96364
▁일본이	-9.96431
것은	-9.96442
밥	-9.96449
▁베	-9.96505
▁당황	-9.96517
▁어떠	-9.96532
들한테	-9.96657
맞	-9.96718
였어	-9.96726
▁재미있	-9.96781
▁연아	-9.96781
▁가능성	-9.96789
없으면	-9.96798
습	-9.96808
▁판결	-9.96858
▁이준기	-9.96893
슨	-9.96915
▁나머지	-9.96962
여전히	-9.96963
▁이승엽	-9.96968
▁삼족	-9.96976
▁매번	-9.96989
▁아프다	-9.9699
▁멍청한	-9.97003
▁이러니	-9.9701
▁마세요	-9.97018
▁최선을	-9.97022
▁TV	-9.97066
▁그러니까	-9.97077
▁좋음	-9.97085
▁소녀상	-9.97094
▁아저씨	-9.97105
이었는데	-9.97115
▁메갈	-9.97127
▁돌아	-9.97183
▁직원	-9.9719
30	-9.97215
▁고양이	-9.97239
▁러시아	-9.97247
▁컴퓨터	-9.97247
▁삭제	-9.97252
▁계신가요	-9.97253
▁조선족	-9.97257
▁웃긴	-9.97264
▁금방	-9.97267
▁방금	-9.97267
▁동영상	-9.97272
▁돌아오	-9.97273
▁괜찮을까요	-9.97283
▁언제쯤	-9.97297
▁해야할지	-9.97302
스타	-9.97315
▁청소	-9.97331
▁뭘까	-9.9736
▁끝나고	-9.97396
▁영입	-9.97405
빼고	-9.97411
년간	-9.97427
▁누군가	-9.97434
▁유느님	-9.97441
▁ᄌᄂ	-9.97443
▁분이	-9.97466
▁고민이네요	-9.97477
▁출산	-9.97561
▁17	-9.97583
라구	-9.97591
▁날이	-9.97611
▁힘들어서	-9.97627
▁일본에	-9.9766
▁그렇다고	-9.97665
혀	-9.97668
▁굳이	-9.97688
▁판매	-9.97689
▁짜증나	-9.97703
▁인구	-9.97711
▁없나	-9.97717
▁부자	-9.97737
▁굿	-9.978
▁리	-9.97806
▁그러는데	-9.9784
거든	-9.9789
ᅮᅮᅮ	-9.97923
▁해야할까요	-9.97927
먹	-9.98015
▁사업	-9.98098
▁70	-9.98178
▁고맙다	-9.98178
▁번호	-9.98226
낸	-9.98247
▁죽은	-9.98305
▁신의	-9.98422
딱	-9.98432
▁보상	-9.98466
였네	-9.98492
▁잊	-9.9853
대가	-9.98537
▁홈런	-9.98574
▁저걸	-9.98655
▁아이돌	-9.98672
▁성적	-9.98688
▁이쁘다	-9.98786
▁설명	-9.98811
▁한국이	-9.98811
▁갑	-9.98884
▁쓰면	-9.98886
쓰레기	-9.9895
▁감기	-9.98961
▁이런걸	-9.99043
▁갔는데	-9.99052
검	-9.99057
▁꽃	-9.99083
▁얼굴에	-9.99172
▁터지	-9.99181
목	-9.99194
삼성	-9.99236
입니까	-9.99265
쥐	-9.99269
▁다르네	-9.99282
드라마	-9.99314
▁남자는	-9.99347
아니면	-9.99382
▁대화	-9.99388
▁문화	-9.99399
꼬	-9.99429
▁밑에	-9.9943
않	-9.99438
맨	-9.99465
▁그러고	-9.99563
카드	-9.99568
▁연구	-9.99569
은거	-9.99611
헐	-9.99682
그럼	-9.99695
▁때려	-9.99704
▁임	-9.99707
버스	-9.99746
▁건가요	-9.99914
50	-9.99916
런	-9.99998
할까봐	-10.001
▁과	-10.0014
▁관심이	-10.0019
▁빠지	-10.0022
쓴	-10.0023
그리고	-10.0029
활동	-10.003
쓰는	-10.0046
이구만	-10.0049
▁없어도	-10.0049
▁못해서	-10.0049
▁문재인	-10.005
▁있어야	-10.0053
▁하지마라	-10.006
▁싸우	-10.0068
▁고통	-10.0071
요리	-10.008
▁부럽	-10.009
트럼프가	-10.0092
▁김정은	-10.0097
나면	-10.0098
▁위에	-10.0105
▁헤어지	-10.0109
▁친박	-10.0109
다리	-10.0112
▁희생	-10.0113
▁하다가	-10.0115
그리	-10.0121
이들	-10.0123
▁할머니	-10.0125
▁시키	-10.0125
▁정치인	-10.0134
리그	-10.0136
▁두번	-10.0149
▁신뢰	-10.0157
거면	-10.0158
▁적당히	-10.0162
▁앉아	-10.0164
▁집안	-10.0169
▁졸업	-10.0177
▁호감	-10.0181
▁어머니	-10.0183
▁식	-10.0183
▁아까	-10.0185
▁숫자	-10.0186
▁빠른	-10.0187
▁교환	-10.0189
▁없으니	-10.0192
▁은퇴	-10.0198
▁안좋은	-10.0207
보이	-10.0209
▁동안	-10.0213
걸까	-10.0215
▁물어	-10.0222
▁관련	-10.0224
a	-10.023
▁궁금	-10.0237
휴	-10.0237
▁애가	-10.0241
층	-10.0244
▁기자가	-10.0249
때는	-10.0252
ᅲᅲᅲᅲᅲ	-10.0256
▁똑같네	-10.0257
야할지	-10.0266
▁주변	-10.0268
▁신기	-10.0273
▁예쁜	-10.0276
께서	-10.0277
▁년	-10.028
▁대단하네	-10.0281
▁감독이	-10.0282
갔다	-10.0283
▁눈빛	-10.0284
▁손석희	-10.0284
▁황재균	-10.0284
▁월요일	-10.0285
겟죠	-10.0287
▁궁금해서	-10.0289
▁보냅니다	-10.0295
▁워낙	-10.0295
▁갤노트	-10.0296
▁꺼져라	-10.0297
▁중국에	-10.0298
▁두렵다	-10.03
▁미군	-10.0306
▁토요일	-10.0311
▁FA	-10.0311
▁내리	-10.0313
▁폭스바겐	-10.0315
▁충분히	-10.0316
▁이상하게	-10.0317
지요	-10.0318
▁자동차	-10.0318
▁나을까요	-10.0321
▁축	-10.0321
보소	-10.0322
▁박수를	-10.0323
▁데	-10.0327
▁고문	-10.0328
▁모르겠고	-10.0329
▁월	-10.0332
▁되지	-10.0333
▁싸게	-10.0334
년을	-10.0345
▁최대	-10.0352
▁놈이	-10.0357
▁스포츠	-10.0358
받아	-10.036
▁판단	-10.037
▁막상	-10.0378
해야함	-10.0379
▁아직까지	-10.0379
하는것도	-10.0379
회사	-10.0384
▁성형	-10.0384
대는	-10.0385
▁투표	-10.0386
▁이쁘고	-10.0387
▁거부	-10.0391
하죠	-10.0398
▁이후로	-10.0399
되어	-10.0407
▁봐라	-10.0411
사람들이	-10.0412
▁화가	-10.0417
▁살빼	-10.0418
왔는데	-10.0426
있네	-10.0426
▁살아라	-10.0436
▁너는	-10.0442
▁어디로	-10.0443
▁음식을	-10.0451
▁마니	-10.0452
될듯	-10.0455
▁한심한	-10.0456
▁신경	-10.0457
▁아오	-10.0458
▁안전	-10.0463
진다	-10.0463
▁낮	-10.0467
▁백인	-10.0469
▁언론이	-10.0473
슈	-10.0478
었다	-10.048
▁구글	-10.0483
▁권력	-10.0484
▁죽어라	-10.0491
있어서	-10.0498
갓	-10.0502
바로	-10.0502
귀	-10.0502
▁광	-10.0503
▁흑인	-10.0503
드는	-10.0504
▁낼	-10.0505
▁팔아	-10.0508
▁기사에	-10.051
▁꼬	-10.051
꼭	-10.0514
▁말아	-10.0519
▁필	-10.0521
▁여기에	-10.0528
▁중소기업	-10.0529
▁애를	-10.0529
이니	-10.0538
내요	-10.0538
▁등등	-10.0539
▁돈도	-10.054
▁싶어	-10.054
치는	-10.054
▁맞고	-10.0541
▁입고	-10.0543
쿠	-10.0554
됩니다	-10.0558
▁저에게	-10.056
▁원인	-10.0568
▁나의	-10.0569
얼	-10.0569
지가	-10.0571
ᄆ	-10.0573
▁성격	-10.0574
▁붙	-10.0578
▁가자	-10.0581
▁줘야	-10.0584
진심	-10.0585
▁왕	-10.0586
▁구단	-10.0589
▁미안	-10.0599
▁ᄏᄏᄏᄏᄏᄏᄏᄏᄏᄏᄏᄏ	-10.0605
마음	-10.0606
하는구나	-10.0615
경제	-10.0615
▁않을까	-10.0619
냐고	-10.0628
!!!!!!!!!!	-10.0629
잇	-10.064
그래도	-10.064
▁상관	-10.0646
▁만날	-10.0649
제품	-10.065
▁관계	-10.0657
▁침몰	-10.0658
이라면	-10.0662
▁화장실	-10.0666
▁지인	-10.0668
했다는	-10.0674
▁책	-10.0677
방송	-10.0678
달라고	-10.0686
▁누	-10.0687
편지	-10.0701
▁피해자	-10.0708
▁개돼지들	-10.071
신분	-10.071
▁도로	-10.0711
▁생기	-10.0711
▁넘나	-10.0712
▁북	-10.0715
▁ᄉ	-10.072
▁떨	-10.0728
▁합	-10.073
▁올려	-10.0735
들과	-10.0741
▁위험	-10.0742
슴	-10.075
▁닥	-10.0755
▁도와주	-10.0763
겟다	-10.0763
구단	-10.0767
▁찬	-10.0785
때도	-10.0785
▁부분	-10.079
▁저정도	-10.0807
▁인류	-10.0809
▁안하는	-10.081
돈이	-10.0812
▁무당	-10.0816
짝	-10.0827
▁됐다	-10.0833
▁촛불집회	-10.0838
▁믿을	-10.0838
인간들	-10.0852
다는게	-10.0869
▁헛소리	-10.0875
▁있어도	-10.0882
껏	-10.0884
▁우선	-10.0893
▁해야한다	-10.0899
▁첼시	-10.0904
▁퇴진	-10.0906
줘야	-10.0906
넹	-10.0908
▁정준영	-10.0909
▁보호	-10.091
▁되서	-10.0912
▁할까	-10.0915
▁소문	-10.0915
▁약속	-10.0916
그것도	-10.0916
▁시급	-10.0918
▁싶어서	-10.0919
▁sns	-10.0921
▁kt	-10.0921
▁수고하셨습니다	-10.0921
▁태어난	-10.0921
▁인식	-10.0922
▁감히	-10.0924
▁외교부	-10.0926
▁만들고	-10.0926
▁지방	-10.0929
▁생각하고	-10.093
▁알파고	-10.0931
해주면	-10.0931
▁괜찮은	-10.0932
▁취급	-10.0935
▁다행이다	-10.0935
앞에	-10.0935
▁울산	-10.0936
▁않으면	-10.0939
▁개누리	-10.0939
▁그룹	-10.094
없음	-10.094
▁생각했는데	-10.0941
▁IS	-10.0942
▁꿀잼	-10.0942
▁보여	-10.0945
▁갤	-10.0945
▁부패	-10.0946
있냐	-10.0947
▁is	-10.0949
▁소속사	-10.0949
▁거품	-10.0954
▁미안하고	-10.0956
넣	-10.0959
▁징역	-10.096
▁이혼	-10.096
▁자전거	-10.0961
▁인상	-10.0965
▁누진세	-10.0972
▁주식	-10.0978
하겠다	-10.0979
▁짓거리	-10.0979
짜	-10.0981
▁졸라	-10.0982
▁영어	-10.0995
었습니다	-10.0995
가는게	-10.0996
▁생각은	-10.0998
▁있던데	-10.0999
▁비판	-10.1
▁안해	-10.1001
▁아파요	-10.1002
▁용	-10.1003
▁운	-10.1003
놈은	-10.1004
▁듣	-10.1004
정도로	-10.1005
▁V	-10.1006
▁잘하는	-10.1009
▁좋지	-10.101
▁아깝다	-10.1013
▁낫다	-10.1014
▁얼굴도	-10.1017
▁장사	-10.1021
▁끊	-10.1023
▁꼬라지	-10.1028
▁황	-10.1031
▁아프고	-10.1032
사랑	-10.1035
후에	-10.1036
▁생명	-10.1048
없네	-10.1053
▁상대	-10.1054
로써	-10.1054
언니	-10.1057
학교	-10.1058
▁대해서	-10.1058
▁그랬	-10.1058
▁않냐	-10.1063
▁않네	-10.1063
▁묻	-10.1069
없는데	-10.1075
▁애비	-10.1078
▁빨	-10.1078
▁싸움	-10.1082
▁힘을	-10.1083
북	-10.1085
▁죄를	-10.1087
▁마치	-10.1088
한다면	-10.1091
▁생각나	-10.1093
뭘	-10.1093
몰	-10.1094
▁역사를	-10.1103
쪽으로	-10.1112
▁둘째	-10.1114
사람들은	-10.1121
▁적은	-10.1126
▁군대가	-10.1131
▁퇴출	-10.1131
▁미치	-10.1133
▁숨	-10.1134
▁유리	-10.1134
▁착하	-10.1143
▁ᄇ	-10.1145
쩍	-10.1148
▁될지	-10.1149
▁준	-10.1154
▁수지	-10.1155
▁잠이	-10.116
.........	-10.1161
지마	-10.1171
▁시민	-10.1171
▁우리나라에	-10.1173
셔서	-10.1176
▁다시는	-10.1177
분들은	-10.119
▁넣어	-10.1193
따위	-10.1194
거같아요	-10.12
똥	-10.1204
▁이런건	-10.1204
▁감옥	-10.1207
ᄅ	-10.1208
겠어요	-10.1216
▁ᄋᄋ	-10.1222
▁안나	-10.1222
▁점수	-10.1224
몽	-10.1224
+	-10.1225
▁낳	-10.1225
집단	-10.1227
▁순실이가	-10.1239
▁가진	-10.124
▁서민들	-10.1244
▁들어가	-10.1246
는것	-10.1247
뉴스	-10.1247
열면	-10.125
▁욕을	-10.1251
ᄋᄋ	-10.1252
▁먼가	-10.1256
넌	-10.1258
▁추가	-10.1259
▁이야	-10.1265
정신	-10.1271
▁송	-10.1278
▁쟤	-10.1281
▁지옥	-10.1281
잘못	-10.1289
천원	-10.1291
버려	-10.1292
▁있던	-10.1294
▁싼	-10.1295
역시	-10.1295
았	-10.1305
▁시대	-10.1308
▁이분	-10.1323
▁콘서트	-10.1327
없고	-10.1327
▁우리나라에서	-10.1343
겠는데	-10.1349
숙	-10.135
▁시원	-10.1362
▁넘어	-10.1364
나봐요	-10.1366
율	-10.1379
▁초딩	-10.1381
▁의원	-10.1388
▁지들이	-10.1391
▁저런것들	-10.1401
▁봄	-10.141
더라도	-10.1412
끼리	-10.1412
▁하차	-10.1417
▁사장님	-10.1418
▁커피	-10.1423
▁해보	-10.1424
▁만큼	-10.1425
▁시켜	-10.1425
▁두고	-10.1429
천만	-10.1429
▁기사가	-10.1434
▁이것들	-10.1437
▁정의	-10.1438
했지	-10.1443
댓글	-10.1448
던가	-10.1452
다보니	-10.1458
▁점	-10.1459
틀	-10.146
▁수능	-10.1467
▁미소	-10.147
▁주세요	-10.147
비를	-10.1475
였음	-10.148
션	-10.1481
▁22	-10.1491
▁교수	-10.1496
▁경찰이	-10.1498
▁허리	-10.1499
▁행복한	-10.15
보면서	-10.1507
▁긴장	-10.1512
▁실망	-10.1518
,,,,	-10.1521
▁정신이	-10.1523
..........	-10.1527
▁14	-10.1527
▁넘게	-10.1531
▁거짓	-10.1533
해줘서	-10.1534
▁답변	-10.1538
낀	-10.1544
관계	-10.1547
▁머리에	-10.1553
▁멋져	-10.1554
하던데	-10.1563
링	-10.1564
▁자기가	-10.1566
▁어렵다	-10.1566
▁아픈	-10.1567
▁고기	-10.1569
벨	-10.1571
▁바꿔	-10.1572
▁박명수	-10.1573
▁생각나네	-10.1574
옹	-10.1576
▁구르미	-10.1576
kg	-10.1576
▁류준열	-10.1576
▁아스날	-10.1576
▁가을야구	-10.1576
▁닭근혜	-10.1577
▁감사하겠습니다	-10.1577
▁제작진	-10.1579
▁같습니다	-10.158
▁추석	-10.158
▁때문이다	-10.1584
▁목숨	-10.1584
▁이런식으로	-10.1585
▁했으면	-10.1585
기자	-10.1586
▁국민연금	-10.1589
▁위대한	-10.1589
▁얼	-10.1589
d	-10.1591
스런	-10.1592
▁당선	-10.1592
▁저딴	-10.16
것같은데	-10.16
▁홀	-10.1603
▁해주	-10.1603
▁보검이	-10.1604
▁훨	-10.1606
▁자격증	-10.1613
▁감사드려요	-10.1613
▁조심	-10.1615
▁벌금	-10.1615
▁무슬림	-10.1616
▁법원	-10.1619
▁중국산	-10.1622
▁아니죠	-10.1623
▁중에	-10.1625
▁배치	-10.1626
▁ᄃᄃᄃᄃ	-10.1633
한지	-10.1633
▁아녀	-10.1636
▁사랑하는	-10.1639
▁뭐하냐	-10.1643
시길	-10.1646
▁저번에	-10.1647
아닌가요	-10.1648
▁그만큼	-10.1651
으로써	-10.1651
▁한국도	-10.1653
시대	-10.1655
▁취소	-10.1656
▁빚	-10.1656
▁예쁘다	-10.1657
▁몰래	-10.1659
▁놀	-10.1664
▁캐	-10.1669
는대	-10.1675
▁지우	-10.1675
▁너한테	-10.1678
▁화면	-10.1679
▁민족	-10.1679
▁알리	-10.169
▁근무	-10.1691
▁무식한	-10.1693
▁봤다	-10.1696
따라	-10.17
▁흠	-10.1701
▁올림픽	-10.1702
▁전체	-10.1703
들만	-10.1703
▁진실을	-10.1704
▁알면	-10.1705
▁늙은	-10.1708
▁군	-10.1708
▁고인의	-10.1712
볼까	-10.1712
▁반응	-10.1713
▁달려	-10.1717
옴	-10.1722
▁트럼프는	-10.1733
▁받았	-10.1733
▁보아	-10.1734
▁풀어	-10.1737
▁나라냐	-10.175
관리	-10.1753
▁든다	-10.1755
"""	-10.1755
했나	-10.1756
▁할배	-10.1763
없어서	-10.1763
▁다르다	-10.1767
▁맞나	-10.1768
▁그니까	-10.1772
봤	-10.1773
▁아래	-10.1773
▁하더라	-10.1779
▁종	-10.1787
▁있다면	-10.1789
▁나오는데	-10.1789
▁주는	-10.1791
료	-10.1794
되어서	-10.1794
▁걷	-10.18
▁좀비	-10.1804
▁평	-10.1805
▁할텐데	-10.1808
블	-10.1811
▁안되고	-10.1814
▁좌빨들	-10.1814
▁나면	-10.1816
▁인기가	-10.1818
▁금지	-10.1825
▁버리	-10.1826
났	-10.1827
▁김정은이	-10.1829
하구	-10.1833
온다	-10.1838
▁거짓말을	-10.1845
▁철	-10.1846
단체	-10.1848
▁같네	-10.1849
▁시장	-10.1863
능력	-10.1867
▁만나면	-10.187
언론	-10.1872
밤	-10.1878
▁맛있는	-10.1879
▁뻔뻔하	-10.1889
다면	-10.189
▁나보다	-10.1895
▁정당	-10.1901
날이	-10.1902
엄청	-10.1908
▁연락을	-10.1914
헌	-10.1917
쇼	-10.192
x	-10.1926
▁안쓰	-10.1926
베	-10.1927
▁뽑	-10.193
▁부인	-10.1934
앙	-10.1938
착	-10.1938
책	-10.194
▁보는데	-10.194
▁인간의	-10.1941
하길	-10.1943
감독	-10.1944
▁주말	-10.1946
s	-10.1948
순위	-10.1951
만원이	-10.1954
쳐서	-10.1958
▁좌빨	-10.1962
해주	-10.1965
▁향	-10.1967
계속	-10.197
집회	-10.1974
▁수입	-10.1974
▁출신	-10.1977
▁사면	-10.198
검사	-10.1984
▁일자리	-10.1987
▁두달	-10.2003
▁헤어진	-10.2007
▁공감	-10.2017
사건	-10.202
다는데	-10.202
아냐	-10.2027
▁딴	-10.203
이젠	-10.2031
▁보자	-10.2034
▁곳이	-10.2034
▁톡	-10.2035
▁침	-10.2041
오는	-10.2042
▁연습	-10.2043
▁잔	-10.2044
테니	-10.2048
해준	-10.2052
▁놀고	-10.2052
▁학	-10.2061
을까요	-10.2062
생활	-10.2063
▁노인	-10.2066
▁터질	-10.2066
아직도	-10.2067
▁역시나	-10.207
▁백수	-10.208
먹으면	-10.2083
▁놈들은	-10.2084
▁라는	-10.2097
몇	-10.2097
▁거리	-10.2114
▁알려	-10.2116
▁자랑	-10.212
▁입장	-10.2127
운동	-10.2127
보기	-10.2131
라는데	-10.2139
할지	-10.2141
,,,,,	-10.2142
사실	-10.2144
▁높은	-10.2153
▁했습니다	-10.2156
줄이야	-10.2156
▁사이	-10.2157
충	-10.2168
▁광화문에	-10.2169
에서도	-10.217
하는지	-10.2174
같은데	-10.2175
▁나왔	-10.2179
돼지	-10.2185
▁사서	-10.2188
▁특검이	-10.2194
▁감옥에	-10.2196
▁가만	-10.2207
▁없어져야	-10.2207
였어요	-10.2208
▁한대	-10.2208
▁잊지	-10.2211
▁놓고	-10.2213
▁애플이	-10.2215
례	-10.2221
택	-10.2223
▁에이	-10.2224
?????????	-10.2226
▁보게	-10.2227
▁여자들이	-10.2227
▁땀	-10.2237
▁믿는	-10.2237
▁할때	-10.2241
▁보이	-10.2252
나가면	-10.2254
▁헬	-10.2259
▁그사람	-10.2261
▁배우고	-10.2272
▁떨어져	-10.2275
▁닭대가리	-10.2278
▁마음에	-10.2283
▁헛	-10.2284
▁박수	-10.2284
▁여태	-10.2284
▁도박	-10.2285
▁앞에	-10.2287
>	-10.229
▁대답	-10.229
츠	-10.229
▁아프리카	-10.229
▁바퀴벌레	-10.229
▁두테르테	-10.229
▁엑소	-10.229
▁교도소	-10.229
한텐	-10.2292
▁현역	-10.2292
▁걸어	-10.2292
▁군화	-10.2293
▁여성부	-10.2295
▁강남	-10.2296
▁대단합니다	-10.2296
일세	-10.2296
▁쉽지	-10.2298
▁뻔뻔한	-10.2298
▁맡기	-10.2298
년째	-10.2299
▁소중한	-10.23
▁좋겠어요	-10.2301
▁간신	-10.2302
▁김치	-10.2302
▁팩트	-10.2304
▁빅뱅	-10.2304
▁터키	-10.2305
▁대형	-10.2307
▁안나온다	-10.2307
▁지코	-10.2309
▁꿀	-10.2311
▁면상	-10.2314
▁않음	-10.2315
▁손님	-10.2325
▁꽤	-10.2328
▁태블릿	-10.2328
▁성폭행	-10.2328
▁욕심	-10.2328
▁호날두	-10.2328
▁여기저기	-10.2328
▁강호동	-10.2329
▁관련된	-10.2329
마음이	-10.233
▁아파트	-10.2331
▁멋있	-10.2332
▁장마	-10.2332
▁선생님	-10.2334
▁용병	-10.2335
▁상대로	-10.2336
▁발표	-10.2337
누나	-10.234
▁지도자	-10.2341
국가	-10.2341
▁살리	-10.2342
▁심리	-10.2345
▁어쩜	-10.2352
▁캐릭터	-10.2352
그런	-10.2353
▁어디까지	-10.2354
▁모든걸	-10.2355
받는	-10.2356
▁주말에	-10.2357
▁이러면	-10.2359
▁루니	-10.236
▁이런기사	-10.236
▁꺼져	-10.2361
된거	-10.2361
▁그런가요	-10.2362
▁교체	-10.2366
▁벌어	-10.2366
▁개같은	-10.237
▁이왕	-10.237
▁냄새가	-10.2371
▁단어	-10.2372
▁안되네요	-10.2375
▁관광	-10.2376
▁슈퍼	-10.2377
▁뼈	-10.2377
▁교과서	-10.2377
▁활약	-10.2377
▁배웠	-10.2377
▁대응	-10.2379
▁규제	-10.238
요ᅲ	-10.2383
▁구조	-10.2385
▁대전	-10.2391
▁기자야	-10.2392
▁남자친구랑	-10.2393
▁안되서	-10.2398
▁걱정입니다	-10.2399
찌	-10.24
▁멸망	-10.2401
▁드립니다	-10.2403
▁없애고	-10.2408
하도록	-10.241
▁줘	-10.2412
▁많음	-10.2413
▁파업	-10.2414
▁체	-10.2415
▁불안	-10.2415
▁다음주	-10.2417
▁빠	-10.2417
▁와우	-10.2419
▁넥센	-10.2419
뭔	-10.2421
▁요구	-10.2428
▁오면	-10.2432
▁도움이	-10.2432
▁비싸	-10.2441
▁수상	-10.2443
▁북한이	-10.2444
자리	-10.2448
▁싫	-10.2451
▁뒤로	-10.2456
▁쓰지	-10.2456
빈	-10.2457
▁써라	-10.246
▁전국	-10.2461
♥	-10.2466
▁공격	-10.2468
▁이번주	-10.247
▁않다	-10.2475
일뿐	-10.2478
▁대선	-10.2479
▁합의	-10.2479
▁기각	-10.2484
▁노예	-10.2487
▁알려주시	-10.2491
▁인해	-10.2508
▁경쟁	-10.2514
▁할듯	-10.2515
▁생겼네	-10.2515
▁맥	-10.2517
했으니	-10.252
▁어이가	-10.2522
▁미안해요	-10.2537
나도	-10.2543
▁이래도	-10.2547
▁업	-10.2557
잡고	-10.2569
▁저년	-10.2577
▁좋다고	-10.2581
수도	-10.2585
장이	-10.2586
속에	-10.2587
▁까지	-10.2589
▁참고	-10.259
국민이	-10.2591
▁챙겨	-10.2601
▁갑니다	-10.2602
▁끝나	-10.2613
▁이름을	-10.2613
▁위로	-10.2616
봐서	-10.2616
▁못하면	-10.2619
▁극혐	-10.2621
▁드	-10.2636
▁좌좀	-10.2639
▁ᅲᅲᅲᅲᅲ	-10.264
▁추워	-10.264
▁개판	-10.2645
▁노인들	-10.2651
겠	-10.2659
자는	-10.2663
아직	-10.2665
으로서	-10.2665
▁털어	-10.2667
▁우주	-10.2667
▁시간을	-10.2669
▁맨	-10.2677
식으로	-10.2682
었다고	-10.2686
어도	-10.2688
풍	-10.2688
▁사장	-10.2689
항	-10.2692
벽	-10.2695
▁보다가	-10.2695
D	-10.2704
▁될듯	-10.2706
=	-10.2707
~!!!	-10.2712
앞에서	-10.2713
▁보소	-10.2713
.............	-10.2715
쯤되면	-10.2717
▁적응	-10.2718
낼	-10.2718
응	-10.272
▁근	-10.2721
▁않았	-10.2721
받아서	-10.2732
무슨	-10.2735
갑니다	-10.2736
m	-10.274
▁서민	-10.2741
▁미국에서	-10.2744
물이	-10.2751
▁보도	-10.2751
▁너의	-10.2758
▁갖고	-10.2761
대가리	-10.2768
▁안해도	-10.277
▁당당	-10.2776
인건	-10.2778
▁창	-10.2783
▁얘네	-10.2784
▁몸에	-10.2786
정도면	-10.2788
▁하는구나	-10.2792
▁ᄀ	-10.2794
위해	-10.28
▁깨	-10.2801
▁하지말고	-10.2803
할거	-10.2807
▁어서	-10.2812
문화	-10.2813
▁논란	-10.2813
다녀	-10.2816
▁잇	-10.2817
▁대통령으로	-10.2818
▁시간에	-10.2826
린다	-10.2828
▁다행	-10.283
▁나네요	-10.2833
됐	-10.284
사람을	-10.2847
▁길이	-10.2849
드만	-10.2852
▁자식들	-10.2854
▁축하해	-10.2863
▁떨어지	-10.2864
▁이후	-10.2867
▁홍보	-10.2885
▁죽이	-10.289
같네	-10.2894
▁사고나	-10.29
▁보인다	-10.2905
▁기업이	-10.2905
운데	-10.2905
▁계시	-10.2916
▁기다리고	-10.2926
음식	-10.2928
국민	-10.2928
▁말해	-10.293
거같아서	-10.2933
▁사망	-10.2935
▁피가	-10.2935
있었	-10.2937
이름	-10.2938
▁아닌거	-10.2941
대신	-10.2941
▁치고	-10.2944
▁출연	-10.2945
인것	-10.2946
지진	-10.2955
▁필요한	-10.2959
봤자	-10.2963
기까지	-10.2978
▁무릎	-10.298
▁웃는	-10.298
♡♡♡	-10.2986
▁하여	-10.2988
▁똑바로	-10.2991
*	-10.2994
시면	-10.2996
신분들	-10.2999
▁나오지	-10.3001
하기도	-10.3001
▁지시	-10.3002
▁트	-10.3004
▁기다려	-10.3009
▁다른사람	-10.301
▁금액	-10.301
▁독재	-10.3011
▁어려운	-10.3017
▁사라지	-10.3019
십니다	-10.3025
▁썼	-10.3027
▁진행	-10.3032
▁미련	-10.3035
콘	-10.304
있습니다	-10.3043
야구	-10.3044
▁주변에	-10.3045
▁추천	-10.3052
견	-10.3052
씬	-10.3056
칭	-10.3058
▁짧은	-10.3059
커녕	-10.3059
▁훈훈	-10.3059
▁협박	-10.3059
▁송지효	-10.3059
▁최형우	-10.306
▁아름답	-10.306
▁정준하	-10.306
▁물타기	-10.306
▁파이팅	-10.306
▁데이트	-10.306
▁시리아	-10.3061
▁감격	-10.3061
▁오랫	-10.3061
▁무료	-10.3061
▁주둥이	-10.3062
▁공포	-10.3062
▁100%	-10.3062
▁불안하다	-10.3063
▁커	-10.3063
▁단순	-10.3063
▁해주는	-10.3064
▁응원할게요	-10.3064
▁사생활	-10.3065
▁즉	-10.3065
▁한심하다	-10.3066
▁미친듯이	-10.3066
한건	-10.3066
▁아놔	-10.3067
▁그닥	-10.3068
▁죄송해요	-10.307
▁내려와라	-10.3073
▁외계인	-10.3074
▁들었는데	-10.3075
▁모조리	-10.3075
▁멋지십니다	-10.3075
▁여러가지	-10.3075
▁유일한	-10.3076
▁김종국	-10.3076
▁어쩌면	-10.3079
▁가짜	-10.3081
써서	-10.3083
▁헬조센	-10.3083
▁나오네	-10.3083
▁우습게	-10.3084
거죠	-10.3099
▁꽉	-10.31
▁무서움	-10.31
▁엔씨	-10.3101
▁노잼	-10.3102
▁모르겠습니다	-10.3102
▁확신	-10.3103
▁전남친	-10.3103
▁궁금하다	-10.3104
▁필요하다	-10.3104
▁남녀	-10.3106
▁우주의	-10.3111
▁한번씩	-10.3112
▁민	-10.3116
▁한방	-10.3117
▁햇	-10.3117
▁온다	-10.3119
▁독립	-10.312
▁부탁드립니다	-10.3124
나마	-10.3124
▁대책	-10.3125
일텐데	-10.3127
▁미쳤다	-10.3127
▁김태희	-10.3128
▁쓰레기같은	-10.3128
▁느끼게	-10.3129
▁어쩌다	-10.3131
▁상담	-10.3131
▁떠나서	-10.3132
▁150	-10.3132
▁편하게	-10.3136
▁아웃	-10.3137
했지만	-10.3138
▁영웅	-10.3139
▁2016	-10.3139
▁봤어요	-10.314
▁우리집	-10.3141
▁사랑합니다	-10.3143
모든	-10.3143
▁몰랐다	-10.3146
▁썩	-10.3147
▁쉽고	-10.3147
▁들어오	-10.3147
▁공장	-10.3149
▁미래를	-10.3164
▁대통령님	-10.3168
여기	-10.3178
▁인증	-10.3179
모습	-10.318
▁연기력	-10.3184
▁심하게	-10.3193
▁거기에	-10.3197
▁에라이	-10.3198
마저	-10.3198
▁키워	-10.3198
▁년들	-10.3198
▁어쩌죠	-10.3204
▁했어요	-10.3204
▁겜	-10.3206
▁뭔가요	-10.3212
▁안됨	-10.3218
▁혁신	-10.322
▁안가	-10.3221
▁조금만	-10.3225
때가	-10.3225
▁떼	-10.3226
▁그녀	-10.323
▁직업	-10.3232
▁못하	-10.3246
!!!"	-10.3246
▁못하는데	-10.3254
▁의식	-10.3255
%	-10.3255
▁힘들지	-10.3258
인걸	-10.3259
▁나오고	-10.3262
▁대우	-10.3262
습니까	-10.3263
▁ᄋ	-10.3267
▁냄새	-10.3268
▁상상도	-10.3272
▁이대로	-10.3273
▁기자들	-10.3275
▁버스	-10.3278
▁지역	-10.3279
▁여자애	-10.3283
날은	-10.3289
혜	-10.329
▁주인	-10.3291
▁복지	-10.3292
일은	-10.3298
▁뽑은	-10.3299
▁현기	-10.3301
▁예약	-10.3307
▁생길	-10.3308
▁좋네	-10.3315
▁세대	-10.3318
▁밤에	-10.3321
▁했더니	-10.3322
▁털	-10.3328
▁가정	-10.3329
있음	-10.333
▁하더니	-10.3335
상태	-10.3344
#	-10.3345
▁해놓고	-10.3346
있는거	-10.3347
▁재밌게	-10.3354
▁독도	-10.3355
▁남자들이	-10.3359
셨나요	-10.3361
▁대한민국이	-10.3362
그래	-10.3367
▁경력	-10.3369
▁이런데	-10.3377
▁내려가	-10.3379
▁스크	-10.3381
겟지	-10.3382
▁경험	-10.3382
▁차이가	-10.3384
▁읽고	-10.3386
▁표현	-10.3395
▁팬들이	-10.3402
▁단체	-10.3407
▁말아야	-10.3415
광	-10.3416
되지	-10.3418
▁가득	-10.343
▁되나	-10.3434
짓을	-10.3439
어야지	-10.3442
든지	-10.3451
▁보지	-10.3453
퇴	-10.3459
몸	-10.346
것지	-10.346
보임	-10.346
만으로도	-10.3461
것만	-10.3465
▁시기	-10.3471
맞냐	-10.3472
▁간단하	-10.3476
이었다	-10.3477
혹	-10.3482
먹는	-10.3486
▁하던	-10.3486
탕	-10.3491
미국	-10.3491
▁되는지	-10.3494
▁뿐이	-10.3494
시절	-10.3496
줘도	-10.35
ᄏᄏᄏᄏᄏᄏᄏᄏᄏ	-10.3501
대한민국	-10.3503
혼자	-10.3507
▁미국에	-10.3509
▁어딜	-10.3512
▁오르	-10.3513
전부터	-10.3514
▁니들은	-10.3517
의외로	-10.3519
▁보이지	-10.3523
▁일본에서	-10.3529
▁대만	-10.3531
▁삼성의	-10.3534
▁병신년	-10.3544
완	-10.3549
▁우려	-10.3551
A	-10.3554
▁살아야	-10.3558
연락	-10.3558
무섭다	-10.3559
ᄇ	-10.3562
인데요	-10.3564
정치	-10.3564
냄새	-10.3566
▁넘어가	-10.3572
출신	-10.3573
세월호	-10.3576
그렇게	-10.358
완전	-10.3581
▁꺼	-10.3583
었음	-10.3585
바리	-10.3586
▁마이	-10.3591
제발	-10.3597
▁워	-10.3599
▁발견	-10.3622
전쟁	-10.3625
▁35	-10.3625
팬들	-10.3627
비해	-10.3627
법은	-10.3629
언제	-10.3633
▁안하	-10.3634
▁한게	-10.3636
▁최강	-10.3642
▁전화가	-10.3643
▁터	-10.3643
▁인권	-10.3644
S	-10.3648
같음	-10.3651
▁인성이	-10.3664
만원짜리	-10.3665
▁끄	-10.3667
겠구나	-10.3669
달라	-10.3675
렵	-10.3677
▁서비스	-10.3679
▁언	-10.368
▁국제	-10.3681
▁봐	-10.3682
▁디	-10.3684
ᄏᄏᄏᄏᄏᄏᄏᄏᄏᄏ	-10.3686
▁해명	-10.369
▁추방	-10.3694
▁돌려	-10.3703
▁지켜	-10.3711
▁초반	-10.3713
효	-10.372
졌다	-10.3722
▁기레기들	-10.3728
▁대단해	-10.3732
▁출시	-10.3733
▁웃고	-10.3737
▁남아	-10.3742
할것	-10.375
보려고	-10.3754
맘	-10.3754
▁있는것	-10.3755
▁만나는	-10.3755
▁하하	-10.3756
▁걸까요	-10.3758
렁	-10.3761
껄	-10.3766
▁달리	-10.3766
▁노답	-10.3768
▁또한	-10.3771
▁참으로	-10.3773
▁알게	-10.3779
▁이휘재	-10.3784
▁맞추	-10.3792
알고	-10.3792
됐다	-10.3793
비가	-10.3797
부모	-10.3798
▁저질	-10.3799
▁지도	-10.3809
이니까	-10.381
▁더워	-10.3814
▁걸린	-10.3818
▁기준	-10.3825
나와	-10.3827
▁실제	-10.3827
▁엠	-10.3829
느냐	-10.3832
▁채	-10.3833
▁씹	-10.3833
▁답장	-10.3838
▁멋있는	-10.3839
▁덕	-10.3849
란다	-10.3851
▁놀라	-10.3853
▁이완영	-10.3859
▁가입	-10.386
▁좋겠네	-10.3864
▁미쳐	-10.3865
어제	-10.388
못하는	-10.3881
뇬	-10.3883
▁흡연	-10.3885
단다	-10.3885
▁흉기	-10.389
▁소송	-10.389
N	-10.3891
▁아가리	-10.3891
놈들은	-10.3892
▁열일	-10.3893
▁이것저것	-10.3893
▁닮은	-10.3893
▁싶고	-10.3893
▁외제차	-10.3893
▁천조국	-10.3893
▁국정농단	-10.3893
차대전	-10.3893
▁국정교과서	-10.3893
▁티파니	-10.3893
▁없었	-10.3893
▁박지성	-10.3893
▁현빈	-10.3893
▁마무리	-10.3894
▁인공지능	-10.3894
▁솔까	-10.3894
▁바랍니다	-10.3894
▁깜방	-10.3894
▁왕따	-10.3894
▁몰카	-10.3894
개월이	-10.3895
▁식단	-10.3895
▁후진국	-10.3895
▁삼성전자	-10.3895
▁모르겠지만	-10.3896
▁해킹	-10.3896
▁생산	-10.3897
▁기존	-10.3897
▁백종원님	-10.3898
신다	-10.3899
▁어렵게	-10.3901
▁구속시켜라	-10.3902
▁솔로	-10.3902
▁이어폰	-10.3903
▁자백	-10.3903
▁짱깨들	-10.3905
▁하게	-10.3908
▁밝혀라	-10.3908
▁훌륭한	-10.3909
▁함부로	-10.3909
▁우울증	-10.3909
▁않았다	-10.3911
▁오버	-10.3911
▁몸값	-10.3911
▁지난주	-10.3913
▁선거	-10.3914
▁즐겁게	-10.3914
▁울고	-10.3915
▁빠져	-10.3916
▁감탄	-10.3917
▁나왔는데	-10.3919
▁한표	-10.392
▁싶네요	-10.3923
스럽다	-10.3924
▁깜놀	-10.3925
▁봐야	-10.3925
▁춤	-10.3925
▁위협	-10.3926
▁틀린	-10.3929
▁몰라서	-10.3929
▁아쉽다	-10.3936
미래가	-10.3937
▁아닙니다	-10.3937
▁평균	-10.3938
▁주머니	-10.3939
▁경유차	-10.3939
▁출동	-10.394
▁대충	-10.3941
▁최소한	-10.3941
시장	-10.3941
▁생각한다	-10.3942
줌	-10.3943
▁결론은	-10.3943
▁자빠졌네	-10.3943
▁꺼내	-10.3943
가자	-10.3947
느니	-10.3952
▁결혼식	-10.3953
▁되었습니다	-10.3953
▁딱히	-10.3956
▁바뀌면	-10.3957
▁빵	-10.3959
▁부럽네요	-10.396
▁턱	-10.3961
▁왔	-10.3963
해주신	-10.3965
▁스펙	-10.3965
▁음주	-10.3965
▁블랙리스트	-10.3966
▁했다고	-10.3966
▁유치원	-10.3967
^^;	-10.3973
▁웃기네	-10.3973
▁갖다	-10.3975
▁기름	-10.3978
▁특검팀	-10.3981
▁슬프다	-10.3982
▁학교에서	-10.3986
▁한테	-10.3988
▁80	-10.3988
▁님들	-10.399
▁재료	-10.3992
▁브	-10.3993
▁구치소	-10.3993
수는	-10.3994
식이	-10.3994
▁디자인	-10.3994
▁불안하고	-10.3995
▁크리스마스	-10.3995
▁모르겠네	-10.3996
▁어딜가	-10.3996
▁넣은	-10.3996
▁응원하고	-10.3996
▁한반도	-10.3996
▁무섭네	-10.3998
▁가게	-10.3998
▁잘했다	-10.3999
▁이런게	-10.3999
▁한참	-10.4001
▁그대	-10.4002
▁몰라요	-10.4002
▁갑질	-10.4005
▁글구	-10.4006
▁도와주세요	-10.4007
▁참고로	-10.4007
▁무시하	-10.4009
▁소설	-10.401
▁굴	-10.401
인들	-10.4011
............	-10.4019
▁죽는다	-10.4019
▁작년에	-10.4026
중이	-10.4026
▁염병하네	-10.4028
▁좋게	-10.403
▁철수	-10.4038
▁자리에	-10.4039
▁인생이	-10.404
▁고맙	-10.4045
▁낫	-10.4047
할려고	-10.4048
▁핑계	-10.4054
▁수원	-10.4055
▁사진이	-10.4056
▁감사하고	-10.4057
고요	-10.4064
▁포함	-10.4073
▁댓글이	-10.4077
▁포켓몬고	-10.4078
대를	-10.408
▁애인	-10.4082
▁치는	-10.4082
▁지지하는	-10.4084
시나요	-10.4085
▁지난	-10.4088
▁국정	-10.409
▁격	-10.4091
환	-10.4093
▁확률	-10.4094
▁적이	-10.4099
이유	-10.4104
이였다	-10.4105
▁쓰는데	-10.4106
▁살면서	-10.4108
▁마음으로	-10.4114
능	-10.4119
▁신이	-10.412
시키는	-10.4122
▁있는데요	-10.4123
▁양심이	-10.4129
▁병원에	-10.4133
▁완	-10.4139
▁실시간	-10.4144
▁한시간	-10.4147
!!!!!!!!!!!!!!!	-10.4147
▁무기	-10.4149
▁목소리가	-10.4158
시는	-10.4158
깨	-10.4167
껀데	-10.4169
▁뒤지	-10.417
▁어이	-10.417
앞으로	-10.4174
▁감정이	-10.4175
▁뭐하고	-10.4178
▁다리가	-10.4178
째	-10.4186
▁인물	-10.4189
▁걷어	-10.419
▁여친이	-10.4191
i	-10.4192
▁부대	-10.4196
▁임기	-10.4197
▁작	-10.4199
▁왔어요	-10.4202
웃	-10.4202
해야겠다	-10.4204
리가	-10.4205
▁기다리는	-10.4208
떨	-10.4213
▁아닌듯	-10.4214
나라가	-10.4214
저는	-10.4223
▁비오	-10.4224
▁사람인데	-10.4232
▁이것이	-10.4232
▁어떡해	-10.4237
▁문제다	-10.4241
고있는데	-10.4242
▁팬이	-10.4249
했고	-10.425
쳤	-10.4255
▁빈	-10.4261
▁상태	-10.4263
덜	-10.4264
법을	-10.4267
▁탓	-10.4272
▁이용하	-10.4277
▁줘서	-10.428
▁밝혀	-10.4281
황	-10.4283
▁키우	-10.4284
▁벌레	-10.4284
▁말로	-10.429
▁캐럿들	-10.4291
라며	-10.4301
▁떠나	-10.4306
▁일하고	-10.4308
▁올리는	-10.4328
극	-10.4334
▁존	-10.4341
갔는데	-10.4341
▁좋은일	-10.4353
시즌	-10.4355
야함	-10.4359
분의	-10.4362
자꾸	-10.4362
▁커플	-10.4368
▁끝날	-10.4369
▁죄인	-10.437
▁늙	-10.4372
도없고	-10.4377
▁아나	-10.438
▁상황이	-10.4381
처리	-10.4382
▁어마어마	-10.4382
려는	-10.4396
▁내고	-10.4397
취	-10.4401
▁주제	-10.4404
았는데	-10.441
오고	-10.4414
▁먹은	-10.4424
▁^	-10.4425
~~~^^	-10.4427
답니다	-10.4428
십	-10.4433
될까	-10.4435
쪽은	-10.4435
▁개꿀	-10.4438
▁이란	-10.4442
센	-10.4445
시킬	-10.4446
▁당연	-10.4451
▁저래	-10.4454
▁징	-10.4456
떼	-10.4459
대회	-10.446
뮤	-10.4461
▁신인	-10.4468
▁변호	-10.447
쓸	-10.4471
커플	-10.4474
▁투	-10.4475
특검	-10.4477
▁끝나는	-10.448
겠어	-10.4483
있다고	-10.4483
열심히	-10.4486
최순실	-10.4487
함이	-10.4498
18	-10.45
얼마나	-10.4502
▁나눠	-10.4504
▁생각해	-10.4505
세계	-10.4505
버려야	-10.4506
▁가르쳐	-10.4507
제대로	-10.451
▁안받	-10.451
▁드는	-10.451
▁가을	-10.4512
▁너를	-10.4514
있지	-10.4517
~~~~~~	-10.4523
▁한심	-10.4527
▁색	-10.4529
▁연예인들	-10.453
▁안사	-10.4531
는거임	-10.4544
것처럼	-10.4545
▁개나	-10.4549
분명히	-10.4551
으려고	-10.4556
▁이유	-10.456
했	-10.4564
▁겁	-10.4565
▁없어지	-10.4566
▁일당	-10.4569
폭발	-10.4584
▁손이	-10.4584
▁늦	-10.4587
라이	-10.4587
주제에	-10.4588
;;0	-10.4594
믄	-10.46
준거	-10.4604
이라는게	-10.4609
▁아시는	-10.4623
▁만들면	-10.4624
▁아가	-10.463
▁맛	-10.4632
▁고등학교	-10.4632
할게	-10.4637
▁회사가	-10.4639
역사	-10.4642
▁메이저	-10.4647
▁도망	-10.4647
▁말하면	-10.465
▁분들이	-10.465
▁처리	-10.4654
랏	-10.4661
방에서	-10.4662
줬	-10.4663
▁일본의	-10.4675
먹어서	-10.4677
▁혼란	-10.4688
럴	-10.47
▁하겠네	-10.4701
▁제주	-10.4702
닝	-10.4705
▁먼지	-10.4706
위로	-10.4708
▁하라고	-10.4708
▁취	-10.4713
ᅲᅲᅲᅲᅲᅲᅲᅲᅲᅲᅲᅲᅲᅲᅲᅲ	-10.4718
▁간첩	-10.4721
▁과거	-10.4722
▁고려	-10.4723
▁예뻐	-10.4727
형이	-10.4731
▁두려움	-10.4733
▁볼수	-10.4733
▁화성	-10.4738
▁끌어	-10.4741
라인	-10.4741
▁특	-10.4746
▁먹어야	-10.4748
▁김치년	-10.475
▁근육	-10.4754
속에서	-10.4754
▁비용	-10.4757
맘대로	-10.4757
립	-10.476
껀	-10.4763
▁지배	-10.4767
람	-10.4768
▁도저	-10.477
왔어요	-10.4775
▁모르겠어	-10.4777
▁혹	-10.4779
일도	-10.4782
▁신기하네	-10.4782
▁와이프	-10.4784
싱	-10.4785
▁농	-10.4787
퀴	-10.4788
▁거다	-10.4788
아라	-10.479
▁일어날	-10.4791
▁추운	-10.4791
▁헤어지자	-10.4791
▁염병	-10.4793
▁바쁜	-10.4795
듬	-10.4795
땅	-10.4796
룡	-10.4799
I	-10.48
닷	-10.48
▁엊그제	-10.4801
킥	-10.4802
덴	-10.4802
▁높다	-10.4802
▁왤케	-10.4802
▁쩐다	-10.4802
▁꾸준히	-10.4802
▁맙시다	-10.4802
▁해피투게더	-10.4802
▁찌라시	-10.4802
▁강정호	-10.4802
쯧쯧	-10.4802
▁펑펑	-10.4802
▁ᄅ혜	-10.4802
▁채널	-10.4802
▁막막하네요	-10.4802
▁폭염	-10.4802
▁리얼	-10.4803
▁방통위	-10.4803
▁걱정됩니다	-10.4804
▁비아그라	-10.4804
▁질투	-10.4804
▁죽을때까지	-10.4806
▁꼼수	-10.4806
▁유독	-10.4806
▁부족한	-10.4807
▁퇴사	-10.4807
▁이제서야	-10.4807
▁야근	-10.4809
답다	-10.4809
▁95	-10.4811
▁탈퇴	-10.4813
▁그와중에	-10.4813
▁생일축하해요	-10.4813
▁맞죠	-10.4813
▁신화	-10.4814
▁입국	-10.4814
▁두번째	-10.4814
접	-10.4814
번째	-10.4817
▁같지	-10.4818
▁분유	-10.4818
▁완벽한	-10.4818
▁재판	-10.4818
▁아프네요	-10.4818
온갖	-10.4819
▁고영태	-10.482
▁2017	-10.482
▁초등학교	-10.482
▁이력서	-10.482
▁힘듭니다	-10.482
▁위험하다	-10.4821
▁이정현	-10.4821
아무래도	-10.4821
▁폐지해라	-10.4821
▁피겨	-10.4822
고싶은데	-10.4823
▁홈	-10.4823
▁미치겠어요	-10.4824
▁사법부	-10.4825
▁안올	-10.4825
▁추운데	-10.4828
▁시선	-10.4828
▁떨어진	-10.4828
▁소개	-10.4829
▁웃겨	-10.483
▁강원도	-10.4831
▁이민	-10.4831
▁되었네요	-10.4831
▁아니겠죠	-10.4832
▁기대합니다	-10.4832
▁빌	-10.4835
▁끝나면	-10.4835
▁싶어요	-10.4836
▁과학	-10.4839
보는데	-10.4841
▁사귄지	-10.4842
▁유일	-10.4843
▁듣기	-10.4847
▁치료	-10.4849
▁자세	-10.4849
▁안그래도	-10.4849
▁800	-10.485
▁택배	-10.485
▁뽀뽀	-10.4851
▁전두환	-10.4851
▁몸무게	-10.4851
▁대포폰	-10.4851
인게	-10.4852
▁핫	-10.4852
▁프로야구	-10.4852
▁목표	-10.4853
▁살짝	-10.4855
▁시작해서	-10.4856
▁사형시켜라	-10.4856
▁간만에	-10.4856
▁볼때마다	-10.4857
▁재계약	-10.4857
▁운영	-10.4858
▁계산	-10.4862
▁역겹다	-10.4863
▁뭔데	-10.4863
▁빠르	-10.4864
▁하야해라	-10.4869
▁행복해	-10.4869
▁이제와서	-10.487
▁맞았	-10.4871
▁ᄊ	-10.4871
▁아침부터	-10.4873
▁좋지만	-10.4875
▁가봐야	-10.4878
▁호주	-10.4878
▁해야될지	-10.4878
줘	-10.4878
▁울나라	-10.4881
▁많네요	-10.4881
▁가기	-10.4884
▁암튼	-10.4887
▁그렇	-10.4887
▁그러냐	-10.4888
▁무능	-10.489
▁없으니까	-10.489
년차	-10.4892
었는지	-10.4898
▁걱정되네요	-10.4902
▁느	-10.4903
▁불안한	-10.4905
▁않는데	-10.4906
▁신문	-10.4908
▁헤어지자고	-10.491
▁알지만	-10.4912
하느라	-10.4914
▁귀엽고	-10.4914
▁만들어라	-10.4915
▁99	-10.4917
둥이	-10.4918
▁실수	-10.492
줘라	-10.492
▁중간에	-10.4922
겟	-10.4926
▁단속	-10.4933
되나요	-10.4934
▁불안해요	-10.4936
▁왜이렇게	-10.4936
▁토스	-10.4937
▁뿐이다	-10.4938
거라	-10.4938
▁파면	-10.494
▁사랑하고	-10.4941
▁K	-10.4946
▁멘탈	-10.4946
▁틀리	-10.4947
▁달아	-10.4947
군데	-10.495
간에	-10.4952
성을	-10.4953
▁밖	-10.4953
▁나옴	-10.4955
▁무죄	-10.4959
는건데	-10.496
▁허리가	-10.496
▁패스	-10.4961
지않아	-10.4961
▁생기면	-10.4962
▁경상도	-10.4962
▁사이다	-10.4969
▁성인	-10.4973
정권	-10.4974
해주는	-10.4978
▁아직은	-10.4978
▁맞나요	-10.4978
▁부부	-10.4979
▁혁명	-10.4979
▁공주	-10.4988
▁훈련	-10.4989
▁떡	-10.499
▁있다니	-10.499
▁폐	-10.4992
▁M	-10.4992
▁현대	-10.4992
▁들어가는	-10.5004
하더라구요	-10.5006
▁여론	-10.5012
나봐	-10.5013
▁안했는데	-10.5015
▁한다는	-10.5017
▁부활	-10.5017
▁보여줘	-10.5018
▁키가	-10.5025
▁알려주셔서	-10.5027
름	-10.5027
▁직	-10.5029
▁현실이	-10.5034
▁입에	-10.5035
준다	-10.5036
▁경기를	-10.5042
▁의미가	-10.5044
▁납니다	-10.5044
빼	-10.5045
▁친한	-10.5053
▁고민중	-10.5057
된건	-10.5062
핀	-10.5063
▁와중에	-10.5067
하겠지	-10.5071
▁퍼	-10.5072
이예요	-10.5079
▁자고	-10.5079
▁어른들	-10.508
▁날려	-10.5084
아주	-10.5085
▁환경	-10.5088
▁만지	-10.5096
해놓고	-10.5096
▁차별	-10.5099
▁남편이	-10.51
명은	-10.5102
▁최고다	-10.5108
▁안나오	-10.5109
▁만드	-10.5111
▁등장	-10.5113
▁안간다	-10.5119
▁자국민	-10.5122
▁있다가	-10.5124
▁가시	-10.5124
▁하겠지	-10.5128
▁동생이	-10.5128
들끼리	-10.513
▁큰일	-10.5133
▁죽고	-10.5137
▁알았	-10.5137
▁가능성이	-10.5138
▁나랑	-10.5141
꾼	-10.5143
거같음	-10.5143
▁사람한테	-10.5156
▁터져	-10.5157
▁많아요	-10.5159
▁느그	-10.5164
▁아내	-10.5166
▁죽었다	-10.5171
▁견찰	-10.5178
거겠죠	-10.5182
▁안된다고	-10.5186
▁각	-10.5188
지나	-10.5193
~~~~~~~	-10.5193
▁위기	-10.5196
폐	-10.5197
짜리	-10.5201
▁그돈	-10.5204
병원에서	-10.5211
하늘이	-10.5219
▁다신	-10.522
졌	-10.5227
▁찍은	-10.5228
는건가요	-10.5229
▁내려와	-10.523
꺼야	-10.5235
▁했지만	-10.5235
▁안되는거	-10.5236
▁낸	-10.5243
주시면	-10.5253
▁생일을	-10.526
▁된거	-10.5261
▁남을	-10.5262
▁떠들	-10.5262
▁편안	-10.5266
셨어요	-10.5269
먼	-10.527
페	-10.527
▁대통	-10.5271
▁그려	-10.528
▁보내야	-10.5283
는줄	-10.5288
▁배우들	-10.5289
▁해줘서	-10.5292
라는게	-10.5292
▁x	-10.5293
켜	-10.5293
▁파악	-10.5295
▁자격	-10.5297
▁난민	-10.53
이건	-10.53
▁강아지	-10.5302
▁결	-10.5304
▁확정	-10.5308
▁차를	-10.5313
하다니	-10.5314
여자랑	-10.5314
해주고	-10.5323
▁전자	-10.5323
햇	-10.5324
▁왔는데	-10.5326
갖고	-10.5327
▁개한민국	-10.5331
▁맛이	-10.5331
▁리그	-10.5347
▁인재	-10.5347
▁봐주	-10.5348
밀	-10.5356
▁왔다	-10.5357
▁떨어졌	-10.5358
▁칠	-10.5359
▁곡	-10.5363
▁부분이	-10.5365
하구나	-10.5367
▁여자도	-10.537
▁다니	-10.5371
명이나	-10.5372
▁탄	-10.5379
았다	-10.5385
▁된다고	-10.5386
▁봉	-10.5392
보인다	-10.5392
결혼	-10.5396
치면	-10.5397
는디	-10.54
성적이	-10.5404
▁했음	-10.5408
톡	-10.5408
잼	-10.541
▁일부	-10.5414
▁이뻐	-10.5418
폭	-10.5419
춘	-10.542
▁시청자	-10.5422
모두	-10.5427
▁굶	-10.5428
쩌	-10.543
섭	-10.5433
총	-10.5434
었구나	-10.5434
▁몰려	-10.5441
솔	-10.5443
▁잡고	-10.5447
촌	-10.5448
▁말자	-10.5449
번호	-10.5451
▁계	-10.5454
▁살아가	-10.5456
같아	-10.546
ᄍ	-10.5462
시킨	-10.5464
맥	-10.5466
봐요	-10.5466
조사	-10.5467
T	-10.5469
▁조차	-10.547
▁밑	-10.5473
공부	-10.5474
먼저	-10.5475
그룹	-10.5476
렸는데	-10.5477
▁잘못한	-10.5481
다이어트	-10.5482
▁척	-10.5488
▁안되지	-10.5489
▁생각만	-10.5489
결국	-10.549
노래	-10.5492
가능	-10.5494
▁찢어	-10.5495
감사	-10.5496
결과	-10.5497
소름	-10.5498
우리나라	-10.5498
▁선생	-10.5501
▁세이콘	-10.5504
▁데뷔	-10.5505
▁맹구	-10.5505
할텐데	-10.5506
▁누굴	-10.5506
▁참석	-10.5507
고싶은	-10.5512
듣고	-10.552
▁받아야	-10.5521
▁하셨	-10.5528
전엔	-10.5529
▁폰팔이	-10.553
없어요	-10.5532
일때	-10.5535
판사	-10.554
별로	-10.5543
시간동안	-10.5546
있다는게	-10.5549
▁들어와	-10.5555
▁댓글에	-10.5556
▁애도	-10.5558
예보	-10.5558
▁화나	-10.556
▁심각하	-10.5561
▁사건이	-10.5562
▁슬퍼	-10.5563
▁하지마	-10.5574
▁어디다	-10.5576
▁폭동	-10.5576
있	-10.5581
했더니	-10.5586
▁명절	-10.5604
겄네	-10.5609
▁불매	-10.5612
▁폭력	-10.5612
입고	-10.5614
▁일본인	-10.5621
▁됬	-10.5625
훈	-10.5629
▁엄	-10.563
이미	-10.5633
▁지키	-10.5638
자로	-10.5642
▁틀	-10.5645
햇는데	-10.5652
▁몇일	-10.5653
님이	-10.5662
햇다	-10.5664
집에	-10.5669
▁애는	-10.5673
인생	-10.5676
▁무시하는	-10.5677
▁뇌물	-10.5681
누가	-10.5682
졌는데	-10.5687
▁소비자	-10.5687
▁어쩌	-10.5692
▁뿌리	-10.5693
겐	-10.5696
▁썸	-10.5702
심이	-10.5704
▁안녕	-10.5706
▁했어	-10.5706
▁앉	-10.5713
서울	-10.5713
▁어디가	-10.5714
▁다녀	-10.5715
▁매일매일	-10.5716
▁평소	-10.5721
갔	-10.5721
▁브라질	-10.5721
끝	-10.5722
▁김고은	-10.5724
▁며칠	-10.5724
▁봤	-10.5725
라던데	-10.5732
▁안될	-10.5733
▁약한	-10.5734
컷	-10.5736
▁오바	-10.5737
▁옳은	-10.5743
▁이러	-10.5744
킬	-10.5746
들어서	-10.5751
하든	-10.5751
이죠	-10.5752
싶은데	-10.5758
▁카	-10.5759
갈때	-10.5765
▁싶네	-10.5765
▁못보	-10.5765
▁손가락	-10.5765
▁대처	-10.5768
▁카메라	-10.5771
▁처음이라	-10.5781
▁코치	-10.5782
▁어플	-10.5784
모로	-10.5785
▁엘	-10.5786
하시길	-10.5787
▁비정상	-10.5791
셧	-10.5794
▁법적	-10.5797
▁말할	-10.5797
률	-10.5799
p	-10.5801
▁컴백	-10.5802
▁lg	-10.5802
▁금메달	-10.5802
▁멕시코	-10.5802
▁젝키	-10.5802
▁테러리스트	-10.5802
▁인종차별	-10.5802
▁증말	-10.5802
▁살처분	-10.5802
▁김경숙	-10.5803
▁걱정되서	-10.5803
▁쉽	-10.5804
▁자랑스럽습니다	-10.5804
▁기쁘	-10.5804
▁주연	-10.5804
▁상당히	-10.5804
▁아무런	-10.5805
▁서류	-10.5805
▁날짜	-10.5806
▁바른	-10.5807
▁대국민	-10.5807
▁광희	-10.5807
▁미안합니다	-10.5807
▁악플러	-10.5807
▁게스트	-10.5807
▁진지하게	-10.5807
▁설레	-10.5808
▁혈세	-10.5808
▁볼수록	-10.5808
▁연금	-10.5808
▁질질	-10.5808
▁완성	-10.5808
▁조금씩	-10.5809
▁슬픈	-10.581
▁전문대	-10.581
▁공식	-10.581
▁없겠죠	-10.5811
▁일요일	-10.5812
▁밀어	-10.5812
▁띄	-10.5813
▁비호감	-10.5813
▁서울에	-10.5814
▁근대	-10.5815
▁야동	-10.5816
말을	-10.5817
▁B	-10.5817
▁롤	-10.5818
하기엔	-10.5821
▁뭐하러	-10.5821
▁여유	-10.5821
▁성추행	-10.5821
▁권태기	-10.5822
▁양현종	-10.5822
▁추카추카	-10.5822
▁영원한	-10.5822
▁핵무기	-10.5822
▁권리	-10.5823
▁250	-10.5824
▁철저히	-10.5825
년생	-10.5827
▁누진제	-10.5828
▁잘생겼다	-10.5828
▁하나같이	-10.5832
▁두개	-10.5834
▁다른건	-10.5835
▁술마시	-10.5835
월달	-10.5838
▁그러네요	-10.5838
같은건	-10.5839
▁슬프네요	-10.584
▁좃	-10.5841
▁기상	-10.5844
▁예쁘고	-10.5845
▁웃음	-10.5848
▁평화	-10.5848
▁박근혜의	-10.5848
▁있었다	-10.5849
지를	-10.5849
커서	-10.5852
▁가지가지	-10.5854
▁엥	-10.5856
▁토트넘	-10.5856
▁모르는데	-10.5856
▁악질	-10.5856
▁즐기	-10.5856
▁더운	-10.5856
▁AI	-10.5857
▁마냥	-10.5857
▁멋있어	-10.5857
▁공항	-10.5858
해봐라	-10.5858
▁먹이	-10.5858
▁집밥	-10.5859
▁먹튀	-10.586
▁상대방	-10.5861
돌아	-10.5861
▁개누리당	-10.5862
▁이러고	-10.5863
▁면제	-10.5864
▁두려워요	-10.5864
▁후반	-10.5869
▁됐는데	-10.5872
▁없을듯	-10.5872
▁귀여워	-10.5876
▁신랑	-10.5877
▁호구로	-10.5879
▁면허	-10.5879
▁착각	-10.588
▁아니겠지	-10.5881
▁박사모들	-10.5882
▁해야하나요	-10.5883
▁3000	-10.5884
겟네	-10.5884
▁심장이	-10.5887
▁창조	-10.589
용으로	-10.589
▁민주당	-10.5891
▁않나요	-10.5891
~~!!!	-10.5893
▁대박이다	-10.5893
▁죽었	-10.5893
▁환자	-10.5894
▁먹을거	-10.5894
▁그만해라	-10.5895
▁싹다	-10.5898
▁총살	-10.5899
▁죽여야	-10.59
▁강요	-10.59
▁대세	-10.5901
▁알겠다	-10.5901
▁빠져서	-10.5904
▁남들은	-10.5909
▁돈받고	-10.5909
▁고마운	-10.5909
▁중요	-10.591
▁본방사수	-10.5911
▁클	-10.5913
▁적게	-10.5915
▁반대로	-10.5916
▁멤버	-10.5917
▁다름이	-10.5917
▁못하면서	-10.5917
기엔	-10.5919
▁천하	-10.5919
▁아니구나	-10.592
▁괴	-10.5921
이야기	-10.5922
▁않아서	-10.5922
▁의혹	-10.5927
▁벗어나	-10.5927
겠구만	-10.593
▁욕하고	-10.5931
▁악의	-10.5931
▁흥	-10.5933
▁때문	-10.5935
▁살다	-10.5936
▁되었는데	-10.5942
▁!!!!	-10.5947
▁아휴	-10.5948
▁행복하	-10.5948
▁상식	-10.5951
▁추억	-10.5951
옵니다	-10.5952
같아요	-10.5952
▁싶으면	-10.5953
▁사랑해요	-10.5953
▁스타일	-10.5954
▁생겼다	-10.5955
받으면	-10.5958
▁아진짜	-10.5958
까진	-10.5959
싸움	-10.5961
▁약자	-10.5963
하더라	-10.5963
▁문제야	-10.597
▁시대가	-10.597
▁방탈	-10.5972
▁루이	-10.5973
▁국대	-10.5973
오빠가	-10.5974
는데도	-10.5976
▁타자	-10.5978
▁너희들은	-10.5978
▁학생들이	-10.5978
▁죽이고	-10.5982
▁넣고	-10.5983
세상	-10.5985
▁뭐임	-10.5987
▁집이	-10.5988
자체	-10.5991
뒤에	-10.5994
서요	-10.5996
▁잠도	-10.6
모르는	-10.6009
▁차기	-10.601
▁동성애	-10.6012
줬는데	-10.6014
▁27	-10.6015
▁걸렸	-10.6016
▁매력이	-10.602
비용	-10.6025
▁당한	-10.6027
▁선발	-10.6032
▁썩을	-10.6032
▁할인	-10.6033
▁잠을	-10.6034
▁입대	-10.6036
▁바꾸	-10.6036
▁부정	-10.6037
▁될까봐	-10.6041
거보면	-10.6051
▁안하냐	-10.6057
▁말만	-10.606
▁하다니	-10.6061
▁개가	-10.6064
▁정신차리	-10.6067
▁잘보고	-10.607
었네	-10.6071
▁궁금해	-10.6075
집이	-10.6079
▁미안한	-10.6079
▁이슬람은	-10.608
만나서	-10.6081
▁업체	-10.6082
▁만나고	-10.6087
▁평가	-10.6098
살아	-10.6099
뿐만	-10.6099
▁요금	-10.6102
보여서	-10.6106
줄알았는데	-10.6106
되네요	-10.6107
▁효과	-10.6108
▁감당	-10.6119
▁ᄒᄒᄒᄒ	-10.6122
▁보여주	-10.6124
위가	-10.6127
▁똑	-10.6128
▁!!!!!	-10.613
아니고	-10.6133
▁대학교	-10.614
▁내려오	-10.6144
▁T	-10.6144
▁뭐하는	-10.6147
▁깜짝	-10.6149
▁연예계	-10.6155
▁지네	-10.6155
끼고	-10.6156
▁ᅲᅲᅲᅲᅲᅲ	-10.6158
생각을	-10.6158
▁소환	-10.617
▁했다는	-10.6172
▁이용	-10.6175
년이나	-10.6177
▁연기가	-10.6178
▁세상을	-10.618
▁막장	-10.619
낫	-10.6194
▁받는다	-10.6195
▁억지	-10.6196
▁조직	-10.6197
▁혼자서	-10.6197
▁일이다	-10.6198
▁망하는	-10.6199
있을까	-10.6211
는거다	-10.6215
▁한수	-10.6218
쉽게	-10.6219
▁밝히	-10.6222
해진	-10.6223
왔	-10.6229
졌네	-10.6234
▁해먹	-10.6235
편인데	-10.6237
나오면	-10.6238
나온	-10.6243
주인	-10.6246
▁총기	-10.6246
▁될까	-10.6247
▁했지	-10.6247
었	-10.6248
상황	-10.625
▁누구를	-10.6251
▁유라	-10.6252
;;;;;	-10.6257
▁의리	-10.6258
▁망치	-10.6259
▁들어서	-10.6263
됬	-10.6264
맞아	-10.6268
▁많지	-10.6269
▁이제부터	-10.6269
▁해주고	-10.627
말도	-10.6277
▁대표	-10.6277
하는것	-10.6278
▁우산	-10.6279
▁s	-10.6283
▁모두들	-10.6285
▁일본으로	-10.6286
중인데	-10.629
둥	-10.6296
는걸까	-10.6297
못해	-10.6298
▁해봐	-10.6301
▁탑	-10.6302
▁주인공	-10.6308
▁검색	-10.6309
▁보낸	-10.6312
학생	-10.6312
▁다행이	-10.6324
셨으면	-10.633
▁원하는	-10.6335
▁손해	-10.6338
이형	-10.6341
수로	-10.6345
조작	-10.6345
자를	-10.6348
▁좋았	-10.6357
▁망하	-10.6365
▁시집	-10.6368
겨서	-10.6371
▁페북	-10.6373
▁보러	-10.6375
▁미친거	-10.6377
▁섬	-10.6381
▁배려	-10.6385
▁좌좀들	-10.6387
▁안내	-10.6393
뒤	-10.6397
▁그정도	-10.6399
요금	-10.6408
▁혀	-10.641
젠	-10.6411
ᅲᅲᅲᅲᅲᅲ	-10.6413
어디	-10.6415
야하나요	-10.6418
▁ᅮᅮᅮ	-10.6419
▁그사람이	-10.6429
▁어쩔수	-10.6437
▁자존심	-10.6438
리라	-10.6438
합	-10.6439
▁안되면	-10.6441
할줄	-10.6441
▁푸	-10.6441
▁모여	-10.6442
▁여주	-10.6444
▁강도	-10.6445
▁먹는거	-10.6447
15	-10.6449
▁저보다	-10.6452
▁끝내	-10.6454
▁가져가	-10.6454
▁보여주는	-10.6462
▁맞을	-10.6467
착하고	-10.6468
▁건물	-10.6468
전화	-10.6473
▁믿어	-10.6476
▁ᄂ	-10.6485
▁오고	-10.6486
보고싶다	-10.649
▁정신병	-10.6491
깔	-10.6495
▁걷는	-10.6498
술	-10.6499
▁달라고	-10.6506
▁파는	-10.6506
축	-10.6513
킹	-10.6519
▁할일	-10.6519
▁나나	-10.6521
▁식당	-10.6522
세가	-10.6522
옥	-10.6525
다는걸	-10.6531
쥬	-10.6531
윤	-10.6532
ᅲᅲᅲᅲᅲᅲᅲ	-10.6533
사이트	-10.6533
클	-10.6535
교육	-10.6536
뜨	-10.6538
▁문제지	-10.6538
랴	-10.6548
야겠다	-10.6551
▁운동을	-10.6555
보는게	-10.6558
▁움직이는	-10.656
쪽이	-10.656
죄로	-10.6562
▁개념	-10.6565
짤	-10.6565
▁차량	-10.6565
뜻	-10.6568
▁어버이연합	-10.6568
▁써도	-10.6569
탄핵	-10.6571
▁사용하	-10.6572
이유가	-10.6575
흥	-10.6576
필요없	-10.6577
해주시는	-10.6578
곳이	-10.658
지말자	-10.658
▁먹었	-10.6583
어쩌죠	-10.6583
▁어른	-10.6587
닌	-10.6588
홈런	-10.659
▁사랑이	-10.6591
OOO	-10.6594
복귀	-10.6594
연봉	-10.6595
축하해요	-10.6595
덕분에	-10.6596
솔직히	-10.6598
▁타이밍	-10.6598
특히	-10.6598
▁검찰이	-10.6601
대단하다	-10.6603
맨날	-10.6603
효과	-10.6604
힘든	-10.6611
이군	-10.6617
위에	-10.6624
나온다	-10.6632
▁보네	-10.6634
미세먼지	-10.6635
애기	-10.6636
내용	-10.6636
원이	-10.6637
로운	-10.6641
주차	-10.6641
▁했네	-10.6641
▁할것	-10.6648
▁무개념	-10.6649
▁택시	-10.6651
글을	-10.6651
▁시민들	-10.6652
▁썩어	-10.6653
▁강한	-10.6655
대통령이	-10.6658
▁사귄	-10.666
쳐도	-10.6665
▁자기들	-10.6667
▁못했다	-10.6669
사단	-10.667
거라고	-10.667
하는거냐	-10.6672
▁뿌듯	-10.6674
원도	-10.6683
▁하루만	-10.6686
▁취직	-10.6691
거같고	-10.6693
▁뇬	-10.6694
▁아닌것	-10.6696
논	-10.6699
▁와라	-10.6701
▁가능한	-10.6701
였던	-10.6702
▁개그	-10.6706
아니다	-10.6707
▁생각해보	-10.6708
와라	-10.671
▁멍	-10.6711
▁이사	-10.6713
▁맞는거	-10.672
국민들	-10.6733
▁불안해	-10.6733
일정도	-10.6734
▁계획	-10.6734
▁그치	-10.6734
것을	-10.6736
아빠	-10.6737
▁류	-10.6744
▁수장	-10.6752
▁전문	-10.6755
▁걔	-10.6755
급이	-10.6756
▁보복	-10.6756
다운	-10.6756
곳에	-10.6758
▁짜증	-10.676
▁아이들이	-10.6763
집안	-10.6763
▁천국	-10.6769
끔	-10.6773
덩어리	-10.6774
수있는	-10.6775
할수있을까요	-10.6777
▁최근	-10.6779
▁그분	-10.678
이라면서	-10.6782
돌이	-10.6788
운전	-10.6789
▁감이	-10.6794
▁하는건	-10.6796
대사	-10.6824
냈	-10.6827
▁고마	-10.6828
▁사이비	-10.6828
힌	-10.6831
▁심장	-10.6832
균	-10.6833
몰라	-10.6837
▁뉴스에	-10.6839
이구나	-10.6845
억이	-10.6847
▁속초	-10.6848
▁버티	-10.6848
▁점심	-10.6851
▁소유	-10.6852
▁자기는	-10.6853
안하면	-10.6854
▁대중	-10.6856
뜩	-10.6859
칸	-10.6866
▁메인	-10.6871
▁다른거	-10.6872
▁나오는거	-10.6872
▁걱정도	-10.6874
▁녹	-10.6876
▁신발	-10.6877
딩	-10.6879
는것이	-10.6879
▁전설	-10.6879
랜	-10.688
살인데	-10.6882
폼	-10.6884
▁안타깝	-10.6884
▁모자	-10.6886
▁싶었	-10.6886
▁잠시	-10.6888
▁덴마크	-10.6889
▁들리	-10.6894
엉	-10.6895
▁걸리는	-10.6896
많고	-10.6896
▁팔아먹	-10.6897
▁교통	-10.6897
▁말해야	-10.6897
하고있다	-10.6899
▁이새끼	-10.6899
인대	-10.6899
▁박씨	-10.69
▁유지	-10.6901
▁맹	-10.6908
▁다음날	-10.691
숭	-10.6911
P	-10.6912
펴	-10.6912
y	-10.6912
▁싶을	-10.6912
▁탈모	-10.6913
&	-10.6913
▁명불허전	-10.6913
▁엠비씨	-10.6913
▁지렸다	-10.6913
▁카리스마	-10.6913
▁cctv	-10.6913
▁기독교	-10.6913
▁뒷북	-10.6913
▁리버풀	-10.6913
▁믿습니다	-10.6913
▁앨범	-10.6913
▁어쩐지	-10.6913
▁쭉쭉	-10.6913
▁트와이스	-10.6913
▁퍼거슨	-10.6913
넨	-10.6913
▁동남아	-10.6913
▁스위스	-10.6913
▁손해배상	-10.6913
▁한효주	-10.6913
▁KT	-10.6913
▁무리뉴	-10.6913
▁화웨이	-10.6913
▁멸종	-10.6913
▁세뇌	-10.6914
(?)	-10.6914
▁인턴	-10.6914
희대의	-10.6914
▁웃김	-10.6915
▁잡아들여	-10.6915
▁놀아	-10.6915
♥♥♥	-10.6915
▁바가지	-10.6915
▁바꼈	-10.6915
▁37	-10.6916
▁모르겠음	-10.6916
▁짐승	-10.6916
▁반갑	-10.6916
내서	-10.6916
▁흥행	-10.6916
▁노트북	-10.6917
▁이동욱	-10.6917
▁아주머니	-10.6918
▁로또	-10.6918
▁따르	-10.6918
▁불구하고	-10.6919
▁박통	-10.692
▁반찬	-10.692
▁어떨지	-10.692
▁대기	-10.6921
▁700	-10.6921
▁조심해라	-10.6921
▁지지합니다	-10.6921
▁회수	-10.6922
▁현대차	-10.6922
▁조선시대	-10.6923
▁이대호	-10.6923
▁너무힘들어요	-10.6923
나란	-10.6924
▁미치겠다	-10.6925
▁있었구나	-10.6925
▁축하한다	-10.6926
▁프사	-10.6927
▁기운	-10.6928
▁조언좀	-10.6928
▁은행	-10.6928
▁매주	-10.693
▁아시는분	-10.693
▁공짜	-10.693
▁되잖아	-10.693
▁모유	-10.6931
▁고급	-10.6932
▁안좋게	-10.6933
▁어떡하지	-10.6935
▁멘붕	-10.6935
▁클래스	-10.6935
▁법대로	-10.6935
▁방사능	-10.6935
▁슈틸리케	-10.6935
▁드뎌	-10.6935
▁서인영	-10.6935
▁호흡	-10.6935
▁고민되네요	-10.6935
▁부탁드려요	-10.6935
▁김진태	-10.6935
▁느껴진다	-10.6935
▁이종석	-10.6936
▁겁난다	-10.6936
▁가끔씩	-10.6939
▁불안함	-10.6939
▁수출	-10.6941
▁꾸	-10.6942
▁국적	-10.6942
대통령	-10.6943
▁현기차	-10.6946
▁5000	-10.6946
▁불쌍해	-10.6946
▁26	-10.6949
▁하는짓이	-10.6949
▁할아버지	-10.695
▁안됩니다	-10.6951
▁윗	-10.6953
▁많으면	-10.6953
▁힘드네	-10.6953
▁낙	-10.6954
▁방문	-10.6956
▁없구나	-10.6957
▁구멍	-10.6959
▁먹고살기	-10.6959
▁않지만	-10.6961
▁구분	-10.6961
▁내려라	-10.6961
▁결국엔	-10.6961
▁않을까요	-10.6961
▁주부	-10.6965
▁아닐까요	-10.6966
▁아우	-10.6968
▁달고	-10.6969
▁상품	-10.6971
만하면	-10.6971
▁법안	-10.6972
▁벗겨	-10.6974
▁베댓	-10.6974
▁폭행	-10.6974
▁우연히	-10.6975
▁수고했어요	-10.6975
▁쓰나미	-10.6976
▁이유를	-10.6976
▁명예	-10.6977
▁않아요	-10.6977
었을까	-10.6977
긴했는데	-10.6977
일수도	-10.6978
해야된다	-10.6982
▁사극	-10.6982
▁성공한	-10.6984
▁못먹	-10.6986
▁두분	-10.6986
▁나무	-10.6987
▁처음이다	-10.6989
긴한데	-10.699
▁언젠가는	-10.699
▁교사	-10.6992
▁고민이에요	-10.6992
.^^	-10.6994
▁ᅲᅲᅲᅲᅲᅲᅲᅲ	-10.6995
▁부모님께	-10.6999
▁불안해서	-10.6999
▁세월이	-10.7
▁축하하고	-10.7001
▁공사	-10.7001
▁괜찮아	-10.7001
▁평소에	-10.7004
▁화이팅입니다	-10.7005
▁빡	-10.7006
▁나오게	-10.7008
▁재미로	-10.7008
육	-10.7009
▁넘어서	-10.7009
▁머지	-10.701
▁그래야	-10.7012
▁야간	-10.7012
에대한	-10.7013
▁침략	-10.7014
▁재석오빠	-10.7014
▁드러운	-10.7015
지말	-10.7015
▁있는건가요	-10.7016
▁나간	-10.7016
▁의문	-10.7016
▁헌법	-10.702
▁황당	-10.7021
▁없는거	-10.7022
미터	-10.7022
먹은	-10.7024
▁크고	-10.7025
▁탔	-10.7026
▁말인가	-10.7029
▁신청	-10.7032
보네	-10.7032
잡으면	-10.7032
▁태어나서	-10.7034
▁예수	-10.7037
▁많냐	-10.7037
▁국내에서	-10.7037
▁미모	-10.7039
▁영향	-10.7041
▁몇명	-10.7042
▁주소	-10.7043
▁무섭고	-10.7043
▁데려가	-10.7044
가야	-10.7046
▁바다에	-10.7046
▁주시	-10.7051
▁배워야	-10.7052
▁엘쥐	-10.7054
▁맞춰	-10.7055
▁행복하세요	-10.7059
▁명품	-10.7061
▁처먹	-10.7063
▁서서	-10.7067
하려는	-10.7067
▁연장	-10.7067
당한	-10.7068
▁그러면서	-10.7068
▁미래의	-10.7069
▁싸다	-10.7071
▁25	-10.7072
▁소비	-10.7072
▁시기가	-10.7073
▁장기	-10.7073
▁새벽에	-10.7076
▁해야하나	-10.7077
▁잘난	-10.7078
장님	-10.7082
▁사실인가요	-10.7085
하기가	-10.7089
하더만	-10.7093
▁교	-10.7093
▁유명한	-10.7093
▁뭐죠	-10.7095
▁외치	-10.7095
되어있	-10.7095
일을	-10.7098
▁짐	-10.7099
▁정한	-10.7099
으면서	-10.71
▁축제	-10.71
▁몇달	-10.7101
▁기춘	-10.7107
▁할말이	-10.7108
▁위성	-10.7113
▁흔	-10.7115
▁떨어지는	-10.7118
▁철도	-10.7122
▁외롭	-10.7123
▁궁	-10.7125
▁사람에게	-10.7127
▁태도	-10.7127
▁미국인들	-10.7129
▁미친것들	-10.7131
경찰	-10.7136
▁열정	-10.7137
▁틀딱들	-10.7138
▁천재	-10.714
지네	-10.7142
▁돌아와	-10.7143
▁c	-10.7146
▁될지도	-10.7146
겠다는	-10.7146
▁현상	-10.7146
▁못하는게	-10.7147
해야할지	-10.7149
▁입장에서	-10.7151
▁닮았다	-10.7151
▁몰랐	-10.7154
▁tv	-10.7157
▁퇴	-10.716
▁비상	-10.7165
▁해보고	-10.7173
▁들어갈	-10.7176
▁괴롭히	-10.7177
▁하시고	-10.7178
적이	-10.7179
▁금수저	-10.7179
▁맞네	-10.718
▁1000	-10.7185
▁탄생	-10.7185
▁행동을	-10.7188
▁이익	-10.7188
▁살면	-10.7188
▁취업이	-10.7188
▁뇌가	-10.7198
▁사실이	-10.72
여도	-10.7202
▁안해서	-10.7205
▁알아야	-10.7206
영이	-10.7212
모아	-10.7212
믿어야	-10.7216
▁했을	-10.7216
▁지나가	-10.7216
▁ᄏᄏᄏᄏᄏᄏᄏᄏᄏᄏᄏᄏᄏᄏᄏ	-10.7217
구여	-10.7217
▁모를	-10.7218
▁간다고	-10.7218
▁해야하는데	-10.7219
▁남자들은	-10.7223
▁보내고	-10.7224
▁오늘부터	-10.7233
▁생겼	-10.7237
▁잘못된	-10.724
리다	-10.7244
지난	-10.7246
느	-10.7246
▁못받	-10.7249
만명이	-10.7255
▁36	-10.7258
▁지진이	-10.7259
하거나	-10.7259
▁긴	-10.7262
▁사상	-10.7263
▁어떡해야	-10.7263
▁잡을	-10.7266
▁열받아	-10.727
▁처음으로	-10.7274
▁한국보다	-10.7278
▁갈지	-10.7282
▁불편한	-10.7289
▁저러	-10.7289
▁자신감	-10.7293
▁군대를	-10.7296
▁넘치	-10.7302
▁고졸	-10.7305
▁비공	-10.7308
둘이	-10.7311
▁많았	-10.7312
▁주위	-10.7317
▁저런거	-10.7321
▁국회의원들	-10.7325
▁밥먹	-10.7328
▁나가서	-10.733
사서	-10.7331
▁가려	-10.7332
▁좋아서	-10.7339
▁손으로	-10.7343
▁건강이	-10.7347
▁좋아한다	-10.7348
▁줘라	-10.7348
된다고	-10.735
가족	-10.7354
기분이	-10.736
▁불편	-10.736
▁아는게	-10.7368
▁생긴다	-10.7374
싫어	-10.7381
▁이세상	-10.7384
놓	-10.7385
▁그만두	-10.7385
많네	-10.7387
▁너무하네	-10.7388
놔	-10.739
사고	-10.739
▁바지	-10.7391
▁하니까	-10.7397
시험	-10.7399
▁호구들	-10.7406
한듯	-10.7412
▁뭘로	-10.7418
▁센스	-10.7424
▁뛰어	-10.7425
ᄒᄒᄒᄒ	-10.7425
▁출	-10.7432
▁안보고	-10.7433
오라고	-10.7436
▁더위	-10.7438
▁들어도	-10.7453
뻔	-10.7455
품	-10.7457
아들	-10.746
▁말투	-10.746
▁사냐	-10.7465
득	-10.7469
▁인도	-10.7474
▁얼어	-10.7478
▁죽음	-10.7478
고있습니다	-10.7481
▁챙기	-10.7481
▁오는데	-10.7482
11	-10.7487
▁직원들	-10.7492
되는게	-10.7494
이었음	-10.7501
▁해당	-10.7503
무도	-10.7504
어라	-10.7509
로서	-10.7512
한방에	-10.7519
▁극우	-10.7522
었나	-10.7523
▁말하고	-10.7524
자체가	-10.7527
어린	-10.7527
▁싫어하는	-10.7528
▁못잊	-10.7541
드냐	-10.7541
▁먹고살	-10.7542
▁이길	-10.7547
▁자식이	-10.7548
▁들여	-10.7549
랍니다	-10.7551
원짜리	-10.7555
▁사랑해	-10.7556
▁손을	-10.7558
▁자격이	-10.7558
엇는데	-10.7564
▁,,	-10.7567
일어나서	-10.7568
시죠	-10.7572
릴때	-10.7574
했네요	-10.7575
▁두려워	-10.7581
동생	-10.7585
안되	-10.7586
ᄏᄏᄏᄏᄏᄏᄏᄏᄏᄏᄏᄏ	-10.7591
선수가	-10.7594
버려라	-10.7594
▁카드	-10.7596
인치	-10.7596
▁떳떳하	-10.76
▁구매	-10.7603
▁살아있는	-10.7604
▁닭은	-10.7605
▁나와야	-10.7606
▁전부터	-10.7607
앞	-10.7621
▁웃기	-10.7622
놀	-10.7628
▁잘해라	-10.7632
ᄍᄍᄍ	-10.7635
▁잘생긴	-10.7636
얼마를	-10.764
몬	-10.7641
▁바닥	-10.7643
▁이름이	-10.7653
일어나	-10.766
▁특별	-10.766
주일	-10.766
▁듣는	-10.7662
친구	-10.7672
▁~~~	-10.7673
밖	-10.7674
▁또라이들	-10.7677
▁경기도	-10.7681
▁울컥	-10.7682
▁원망	-10.7683
ᅲᅲᅮ	-10.7683
▁다음에	-10.7684
▁안다	-10.7684
▁배운	-10.7684
▁태	-10.7685
났다	-10.7686
플	-10.7687
아저씨	-10.7692
네ᄏᄏ	-10.7695
▁장난아니	-10.7699
▁오지	-10.7703
▁????	-10.7711
▁모가지	-10.7717
▁이상이	-10.7717
▁당신을	-10.7717
▁넘치는	-10.7719
액	-10.7721
▁받지	-10.7721
정부가	-10.7725
▁오해	-10.7731
▁무식	-10.7737
▁던지	-10.7739
털	-10.7742
눈물이	-10.7745
▁주먹	-10.7749
잠	-10.7751
▁자신감이	-10.7758
▁증인	-10.7759
▁숙	-10.7762
▁가도	-10.7764
▁같은거	-10.7769
모르	-10.777
▁되었다	-10.777
▁정상인	-10.7772
▁했나	-10.7773
굴	-10.7775
놈의	-10.7777
▁ᄏᄏᄏᄏᄏᄏᄏᄏᄏᄏᄏ	-10.7781
넘넘	-10.7781
홍	-10.7782
▁싶기도	-10.7782
▁꿈에	-10.7789
취급	-10.779
▁23	-10.7796
혈	-10.7796
▁득	-10.7798
▁만든거	-10.7798
탐	-10.7802
▁짱개들	-10.7803
거려	-10.7804
**	-10.7805
생기고	-10.7806
좌	-10.7806
▁절반	-10.781
곳은	-10.7811
▁정상이	-10.7812
하루	-10.7812
임을	-10.7815
힘드네요	-10.7815
찐	-10.7816
▁배달	-10.7818
▁자라	-10.7819
널	-10.782
▁이상해	-10.7823
캐	-10.7823
▁여자분들	-10.7824
쿵	-10.7826
빌	-10.7828
▁희	-10.783
환경	-10.7833
납니다	-10.7834
처먹고	-10.7835
시간에	-10.7836
▁정치인들	-10.7837
▁끌려	-10.7841
폭탄	-10.7841
죄송합니다	-10.7844
LG	-10.7844
가격	-10.7846
저렇게	-10.7847
갑자기	-10.7847
셨네요	-10.7847
수술	-10.7847
로봇	-10.7849
다음	-10.7855
공개	-10.7857
수를	-10.7857
어느	-10.7857
새키들	-10.7857
끝까지	-10.7858
혹시	-10.7858
그런데	-10.7859
▁꿈이	-10.786
월드	-10.7862
▁내내	-10.7864
▁정확	-10.7865
결정	-10.787
▁오전	-10.7872
여행	-10.7872
구속	-10.7873
그대로	-10.7874
노트	-10.7878
란걸	-10.7884
▁다른분들	-10.7885
▁땐	-10.7885
100	-10.7885
축하드려요	-10.7888
▁연락도	-10.7888
▁이완용	-10.7893
▁살아가는	-10.7894
업체	-10.7895
▁망한	-10.7904
적이다	-10.7904
전부	-10.7905
▁한다면	-10.7908
▁통과	-10.7911
리네	-10.7914
▁갈때	-10.7915
▁도전	-10.7916
▁말라	-10.7918
▁신상	-10.7924
▁강화	-10.7924
▁분들은	-10.7924
???????????	-10.7926
;0	-10.7926
▁가슴에	-10.7928
▁강력	-10.7933
▁가치	-10.7937
나와서	-10.794
그만	-10.7942
우면	-10.7942
▁떨어질	-10.7948
▁읽어	-10.7948
하는건지	-10.7958
▁상관없	-10.7964
버린	-10.7969
ᅮᅮᅮᅮ	-10.797
▁아닐	-10.7971
▁슬프	-10.7975
▁안경	-10.7976
든다	-10.7976
▁생각에	-10.7979
▁푹	-10.7981
▁있는건	-10.799
▁만들었	-10.7992
안고	-10.7992
버리는	-10.7998
대에	-10.8008
▁그러나	-10.8011
스러워요	-10.8011
하시던데	-10.8017
투수	-10.8018
부대	-10.8019
▁당선되	-10.8022
잘해	-10.8025
개인	-10.8028
▁아무렇지	-10.8029
▁쇼핑	-10.803
롱	-10.8031
▁빠진	-10.8034
▁집중	-10.8035
▁라면	-10.804
넘게	-10.8041
속으로	-10.8042
했구나	-10.8044
집에서	-10.8045
것인가	-10.8045
▁교육부	-10.805
▁다닐	-10.8054
▁케	-10.8054
▁이전	-10.8055
찰	-10.8056
▁쉴드	-10.8057
300	-10.8062
▁하려	-10.8065
오네	-10.8065
▁속보	-10.8066
▁엿	-10.8068
▁죽는	-10.8069
▁예의	-10.8072
▁어려워	-10.8073
지역	-10.8075
▁거냐	-10.8075
▁넓	-10.8079
말고는	-10.8085
▁빨아	-10.8087
▁결론	-10.8088
턴	-10.8096
▁노벨상	-10.8097
▁망한다	-10.8098
~"	-10.8098
▁건지	-10.8098
▁칭찬	-10.81
▁연합	-10.8101
돼서	-10.8102
▁춥	-10.8103
▁그러는	-10.8105
▁증명	-10.8106
했냐	-10.8107
▁포기	-10.8107
▁핵폭탄	-10.8113
▁생겨	-10.8114
할수있는	-10.8115
▁시도	-10.8116
대단	-10.8118
판에	-10.8123
쁘	-10.8123
했겠지	-10.8124
▁잔인하	-10.8126
▁저기에	-10.8129
많다	-10.8131
랜드	-10.8132
냥	-10.8134
스럽게	-10.8138
든데	-10.8144
▁조카	-10.8144
▁학생	-10.8146
지않고	-10.8147
▁태양	-10.8147
▁빅	-10.8148
▁나쁜놈	-10.8151
하고싶은데	-10.8151
▁흥미	-10.8154
폐지	-10.8155
▁빽	-10.8156
▁나라망신	-10.8156
낭	-10.816
춰	-10.816
멘	-10.8161
룩	-10.8162
럿	-10.8163
윈	-10.8163
▁김영란법	-10.8163
됩니까	-10.8163
▁달걀	-10.8163
▁마찬가지	-10.8163
▁방산비리	-10.8163
▁손연재	-10.8163
▁시그널	-10.8163
▁아픕니다	-10.8163
▁어버버	-10.8163
▁콕콕	-10.8163
▁횃불	-10.8163
▁히틀러	-10.8163
▁이병규	-10.8163
▁짝퉁	-10.8163
▁추악한	-10.8163
▁한혜진	-10.8163
▁강소라	-10.8163
▁종아리	-10.8163
댜	-10.8163
▁계엄령	-10.8163
▁많으셨습니다	-10.8163
됬는데	-10.8163
▁어그로	-10.8163
▁fa	-10.8163
▁따뜻한	-10.8163
▁긍정적	-10.8163
줍시다	-10.8163
땜시	-10.8164
▁가까운	-10.8164
▁잠재적	-10.8164
▁커쇼	-10.8164
▁핵무장	-10.8164
▁헬쥐	-10.8164
▁가해자	-10.8164
▁마스크	-10.8164
▁냉동	-10.8164
▁ᄋᄌ	-10.8164
▁회계	-10.8165
▁패션	-10.8165
▁바란다	-10.8165
▁첫째	-10.8165
▁임금	-10.8166
▁케미	-10.8166
▁대다수	-10.8166
▁진출	-10.8166
▁충성	-10.8166
▁정우성	-10.8166
▁봤더니	-10.8166
▁엉뚱한	-10.8166
▁처형	-10.8167
▁봤습니다	-10.8167
▁에혀	-10.8167
▁공기업	-10.8167
▁비밀	-10.8168
▁태연	-10.8168
올려서	-10.8168
▁오랜	-10.8168
그네	-10.817
▁어때	-10.817
▁힘들었	-10.817
▁인공	-10.8171
▁덮	-10.8171
▁표합니다	-10.8171
▁부끄럽다	-10.8171
▁오줌	-10.8171
▁화형	-10.8172
▁심한데	-10.8172
▁부끄러운줄	-10.8172
▁같던데	-10.8173
작업	-10.8173
▁전북	-10.8174
▁정답	-10.8174
▁가운데	-10.8174
▁이끌	-10.8174
▁공약	-10.8174
▁극혐이다	-10.8175
▁안철수	-10.8175
▁어머님	-10.8176
▁있었으면	-10.8176
▁필수	-10.8176
▁모르겠는데	-10.8177
▁부러워요	-10.8177
▁지났는데	-10.8177
▁걱정이에요	-10.8177
▁마트	-10.8177
▁탈세	-10.8177
▁태어났	-10.8178
▁나라꼴	-10.8178
▁거절	-10.8179
▁향해	-10.818
▁구경	-10.8181
▁재난	-10.8181
▁태국	-10.8181
▁여태까지	-10.8182
▁하체	-10.8182
▁급하게	-10.8182
▁기타	-10.8183
▁영하	-10.8183
▁대접	-10.8183
시키자	-10.8184
▁십자가	-10.8184
▁안나네요	-10.8185
▁걱정되요	-10.8186
국에	-10.8186
▁손목	-10.8186
▁무엇보다	-10.8187
▁개봉	-10.8188
▁저지른	-10.8188
▁않았나	-10.8188
▁엉엉	-10.8188
▁드럽게	-10.8188
▁아바타	-10.8188
▁권혁	-10.8189
▁맨시티	-10.8189
▁슈퍼컴	-10.8189
▁푸틴	-10.8189
▁MC	-10.8189
▁창조경제	-10.8189
▁메이져	-10.8189
▁이건희	-10.819
▁있답니다	-10.819
▁연예대상	-10.819
▁제대로된	-10.819
▁욕나온다	-10.819
▁두렵네요	-10.819
▁민폐	-10.819
▁촛불시위	-10.8191
▁망해라	-10.8191
▁사소한	-10.8191
▁지구상	-10.8191
▁어쩌냐	-10.8192
▁매년	-10.8194
▁뛰어난	-10.8194
▁한류	-10.8195
▁건강하게	-10.8196
▁답없다	-10.8196
▁믿을수가	-10.8196
▁전형적	-10.8197
▁보낼	-10.8197
▁십	-10.8197
잇고	-10.8198
▁지쳐서	-10.8198
▁우울하네요	-10.8198
▁평범한	-10.8199
▁이웃	-10.8199
▁않은데	-10.82
▁잘해줘서	-10.82
▁한명이	-10.82
▁식민지	-10.8201
▁힘들까요	-10.8202
그나저나	-10.8202
▁보이는데	-10.8202
▁억울한	-10.8203
▁안타깝다	-10.8204
▁전기차	-10.8204
▁포기하고	-10.8205
▁승부조작	-10.8205
▁겉	-10.8205
▁잡아다가	-10.8206
▁노동자	-10.8206
했을	-10.8206
▁눈깔	-10.8208
▁삼성폰	-10.8209
▁항의	-10.821
▁의견	-10.8212
▁무식하	-10.8212
인이	-10.8212
▁약쟁이	-10.8213
버렸어요	-10.8213
▁담주	-10.8214
▁낫지	-10.8214
것같은	-10.8215
▁한번더	-10.8215
력이	-10.8215
▁의문의	-10.8216
▁연아님	-10.8217
▁28	-10.8217
▁나타나	-10.8218
▁이것들아	-10.8219
▁천벌을	-10.8219
▁통제	-10.8219
▁학대	-10.8221
▁짤라라	-10.8222
▁아따	-10.8223
나오는	-10.8225
▁유행	-10.8226
▁떨어져서	-10.8226
▁경주	-10.8227
는걸까요	-10.8227
▁빛나	-10.8228
▁친구들한테	-10.8229
▁목사	-10.823
▁버티고	-10.823
▁논	-10.8231
▁블랙	-10.8233
▁ᄇᄃᄇᄃ	-10.8233
▁민노총	-10.8233
▁아나운서	-10.8233
▁깡패	-10.8233
▁신천지	-10.8233
▁닥그네	-10.8233
▁났	-10.8233
▁ᄉᄇ	-10.8233
▁비롯	-10.8233
▁천만	-10.8234
▁불쌍한	-10.8235
▁저주	-10.8235
사이	-10.8237
!!!!!!!!!	-10.8237
해야되	-10.8238
▁서울대	-10.8239
▁한화가	-10.8239
의원	-10.824
▁덥다	-10.8241
▁검은	-10.8242
▁똑똑한	-10.8246
▁돌아간다	-10.8247
▁공개해라	-10.8247
▁ᄃᄃᄃᄃᄃ	-10.8247
▁펜	-10.8248
▁외국에서	-10.8249
▁독재자	-10.825
▁안오네요	-10.825
▁머냐	-10.8251
▁김기춘이	-10.8251
▁답답해서	-10.8251
▁살지	-10.8252
▁안티	-10.8252
▁개인적으로	-10.8252
▁개편	-10.8255
내려	-10.8255
할수가	-10.8255
▁최초	-10.8256
▁글씨	-10.8261
차로	-10.8262
▁글이	-10.8262
▁싫으	-10.8263
▁내일부터	-10.8264
▁않겠죠	-10.8264
▁심정	-10.8265
▁넘들	-10.8266
▁애국	-10.8267
▁뿌	-10.8268
▁믿어도	-10.8268
▁수익	-10.8269
▁대본	-10.827
▁대단해요	-10.8273
▁그렇지만	-10.8277
세기	-10.8278
▁심지어	-10.8278
▁스토리	-10.8278
래요	-10.8279
네요ᅲ	-10.8283
▁진작	-10.8283
▁불가능	-10.8285
▁대출	-10.8286
▁군사	-10.8287
▁닥년	-10.8287
▁콩	-10.8288
물려	-10.8288
▁선수는	-10.8288
이닝	-10.8296
같아서	-10.8296
▁안나고	-10.8297
▁선배	-10.8297
▁쳐다보	-10.8298
▁올까	-10.8298
▁욕이	-10.8299
▁의한	-10.83
▁들어요	-10.83
▁마시고	-10.8301
▁압박	-10.8302
▁중계	-10.8306
▁이상하다	-10.8307
~~~~~~~~~~~~~~~~	-10.8307
▁누구냐	-10.8307
▁두렵고	-10.8308
▁키스	-10.8308
▁쩌네	-10.8309
▁사연	-10.8309
엄마	-10.8309
만으로	-10.831
대강	-10.8314
▁없겠지	-10.8315
▁몰랐는데	-10.8316
▁만들자	-10.8318
500	-10.8321
▁케이스	-10.8321
▁32	-10.8322
▁기능	-10.8324
▁대륙	-10.8324
안돼	-10.8326
되는거	-10.8326
▁드네요	-10.8329
▁노조	-10.8329
다니는	-10.833
만들어	-10.833
▁없다니	-10.8331
방법	-10.8331
▁길게	-10.8337
▁역할	-10.8337
▁붙여	-10.8339
▁하늘을	-10.8344
▁맞은	-10.8345
▁위험한	-10.8345
▁통증	-10.8346
질까봐	-10.8349
▁한쪽	-10.8349
▁제정신이	-10.8355
▁얻어	-10.8355
▁600	-10.8356
▁남자랑	-10.8357
▁하고싶다	-10.8358
▁사랑한다	-10.8359
▁됐	-10.836
▁결혼까지	-10.8361
▁모른다고	-10.8361
▁쎄	-10.8362
시민	-10.8363
▁고장	-10.8363
▁통일	-10.8366
▁죄송	-10.8367
작가	-10.8367
자들이	-10.8368
▁겸	-10.8369
▁아무나	-10.837
느낌	-10.8372
▁중심	-10.8372
▁가져다	-10.8374
▁파워	-10.8374
이었어	-10.8375
▁인류가	-10.8376
▁맞는지	-10.8379
남친	-10.8379
▁때리고	-10.8383
길이	-10.8385
월말	-10.8388
▁이런일이	-10.8388
빠들	-10.8389
▁있을지	-10.8391
▁잘했다고	-10.8392
▁망했다	-10.8393
했나보네	-10.8399
▁강력한	-10.8404
▁온다고	-10.8409
조사해서	-10.8411
▁당연한거	-10.8412
▁나와요	-10.8413
▁방송에서	-10.8415
▁총리	-10.8418
▁프리	-10.8419
시까지	-10.8419
▁남아있	-10.8422
▁천지	-10.8422
▁시청률이	-10.8425
▁싫다고	-10.8429
▁째	-10.843
▁형돈이	-10.843
▁걸릴	-10.8431
보이는	-10.8432
▁팔면	-10.8433
▁국가를	-10.8433
지않	-10.8434
같은게	-10.8436
▁있다는거	-10.8438
▁걱정이다	-10.8438
야됨	-10.844
▁전국민	-10.8441
됐으면	-10.8441
▁너무많이	-10.8443
충들	-10.8444
▁커지	-10.8444
▁되니	-10.8446
▁드라마에서	-10.8449
되길	-10.8452
▁있는건지	-10.8452
▁31	-10.8453
▁하니깐	-10.8454
▁나가라	-10.8454
▁걱정되	-10.8456
▁업무	-10.8456
▁나중	-10.8458
야할까요	-10.8459
버렸	-10.8463
▁타격	-10.8463
▁앱	-10.8463
▁개념없	-10.8465
찍	-10.8467
▁따라하	-10.8469
▁꼬리	-10.847
읍시다	-10.8471
▁했었는데	-10.8478
▁저것	-10.8483
▁현실은	-10.8483
▁단두대	-10.8486
▁거의다	-10.8489
▁재밋	-10.8492
▁열받네	-10.8494
▁남들	-10.8497
▁120	-10.8501
▁같아서요	-10.8503
먹으려고	-10.8506
▁관련자	-10.8506
▁보여줬	-10.8507
시마	-10.8509
▁그러는거	-10.8515
▁놓은	-10.8517
애가	-10.8521
만화	-10.8522
▁년이	-10.8522
▁급여	-10.8524
사용	-10.8525
받았	-10.8525
▁장면	-10.8526
▁가야지	-10.8526
▁논리	-10.8528
▁버려라	-10.8533
▁꼴을	-10.8535
▁부모가	-10.8535
▁한국인들	-10.8541
▁열어	-10.8542
▁일반인	-10.8547
작은	-10.8552
▁비교해	-10.8554
▁감방	-10.8555
▁캐스팅	-10.8556
▁힘들다고	-10.8557
▁하아	-10.8558
하셔서	-10.8559
▁찍고	-10.8561
▁한판	-10.8562
보니깐	-10.8568
▁ᅲᅮ	-10.8568
▁돈에	-10.8572
▁갈수	-10.8573
▁잘하네	-10.8575
▁시대에	-10.8581
되는지	-10.8582
려니	-10.8583
▁지식	-10.8583
빠지게	-10.8585
오는데	-10.8589
양은	-10.859
▁많다고	-10.8591
▁일본놈들	-10.8592
▁부결되	-10.8593
▁모기	-10.8595
▁기적	-10.8602
제국	-10.8605
같고	-10.8606
▁좋아하지	-10.8609
▁촛불이	-10.8618
▁이재용이	-10.8621
▁정부에서	-10.8622
▁하는건지	-10.8622
▁움직이	-10.8622
▁해봐라	-10.8631
▁시즌이	-10.8631
▁그런게	-10.8632
중에서	-10.8635
▁사는데	-10.8636
병원	-10.8636
▁얘가	-10.8642
살다	-10.8642
▁센	-10.8645
▁나갔	-10.8651
▁되네	-10.8652
▁하는것	-10.8652
▁잘해주	-10.8653
▁정신병자들	-10.8653
포장	-10.8654
있을까요	-10.8659
▁최악	-10.866
교육을	-10.866
▁기준이	-10.8663
주신	-10.8664
▁엘지가	-10.8665
려는데	-10.8666
할것이다	-10.8666
이럼	-10.8668
22	-10.8668
고있다	-10.8671
▁청년	-10.8672
▁만든다	-10.8672
▁뭐니	-10.8673
받을	-10.8673
▁일본인이	-10.8678
▁이렇게까지	-10.868
▁항	-10.8682
▁왜이래	-10.8683
▁삼가	-10.8688
▁일상	-10.8689
▁군대에	-10.8689
▁해줘야	-10.8695
▁검	-10.8697
▁들었	-10.8698
지마세요	-10.8706
하다고	-10.8706
학년	-10.8707
▁어쩔수없	-10.8712
되겠네	-10.8714
▁막판	-10.8715
질듯	-10.8715
▁양세형	-10.8724
상황에서	-10.8726
▁사람이다	-10.8727
▁곳에	-10.8727
탓	-10.8727
▁걸로	-10.8728
▁들려	-10.8731
하는거임	-10.8732
▁힘든가	-10.874
▁줄줄	-10.8741
하겠다고	-10.8743
▁찌	-10.8745
▁임창용	-10.875
▁미국인	-10.875
머니	-10.8752
▁오늘이	-10.8752
▁한번만	-10.8755
▁모르지	-10.8761
▁쓰네	-10.8761
▁길거리	-10.8766
▁완벽	-10.8768
해본	-10.877
마리	-10.8771
▁하겠다	-10.8774
았냐	-10.8778
▁하는거지	-10.8779
선수들	-10.878
▁짜고	-10.8782
▁조폭	-10.8782
▁제대	-10.8784
▁되어야	-10.8785
시대의	-10.8785
하겠습니다	-10.8787
내는	-10.8788
▁욕해	-10.8789
있어도	-10.879
대고	-10.8791
▁약을	-10.8791
▁일만	-10.8792
겠다고	-10.8793
구라	-10.8795
????????????????	-10.8796
것다	-10.8797
▁주신	-10.8798
▁소리를	-10.8798
▁예쁘	-10.8799
▁묻어	-10.88
▁놓	-10.8801
▁바라	-10.8804
▁닭이	-10.8805
상을	-10.8808
명도	-10.8825
▁틀딱	-10.8833
▁세금을	-10.8842
뭐냐	-10.885
받은거	-10.885
▁회사에	-10.8853
지르고	-10.8859
▁문재인이	-10.8861
▁남고	-10.8863
할수록	-10.8864
▁한사람	-10.8868
센터	-10.8872
▁저와	-10.8872
억은	-10.8879
▁야이	-10.8879
럼	-10.8881
▁죽인	-10.8882
왔다	-10.8883
이런거	-10.8885
▁ᄆ	-10.8894
되나	-10.8895
▁사귀고	-10.8901
▁안정적	-10.8902
끼들	-10.8903
▁아니네	-10.8903
으세요	-10.8904
▁보여준	-10.8915
▁한국사람	-10.8916
▁피곤해	-10.8919
보라고	-10.892
▁신경쓰	-10.892
▁둔	-10.8922
런지	-10.8928
▁정지	-10.8934
했었는데	-10.8935
▁수백	-10.8938
했던거	-10.8942
▁벌레들	-10.8945
????????????	-10.8945
▁대한민국에서	-10.8947
대상	-10.8954
▁사는거	-10.8958
▁쓰레기들이	-10.8958
▁29	-10.8961
▁빠질	-10.8961
리아	-10.8961
▁하든	-10.8963
▁느끼는	-10.8967
잡아	-10.8976
하진	-10.8976
▁보장	-10.8976
▁제보	-10.8988
되어야	-10.8994
괜찮다고	-10.8995
부럽다	-10.8996
▁기획	-10.8996
할때가	-10.8998
은데	-10.8998
새끼가	-10.9
▁성장	-10.9
하기에	-10.9002
▁남았	-10.9003
분들이	-10.9003
등등	-10.9007
한사람	-10.901
쪽에	-10.902
▁포스	-10.9023
▁뭔일	-10.9025
▁그린	-10.9026
되냐	-10.9026
▁비슷하	-10.9028
▁비난	-10.9031
▁한화는	-10.9036
▁운동은	-10.9036
손님이	-10.9039
▁추락	-10.9044
세금	-10.9055
▁시간은	-10.9058
▁권	-10.906
▁우주에	-10.9068
▁깜빵	-10.9069
공부를	-10.9071
ᄒᄃᄃ	-10.9073
걱정이	-10.9074
▁아플	-10.9074
월급	-10.9081
▁보나	-10.9082
겠나	-10.9088
▁용서	-10.9089
▁방구	-10.9092
레기	-10.9094
▁이동	-10.9094
▁못가	-10.9097
의식	-10.9099
얘	-10.91
모델	-10.9105
▁사치	-10.9107
부분	-10.9108
▁욕도	-10.911
▁까도	-10.9122
엄마가	-10.9123
국이	-10.9125
허다	-10.9129
▁주지	-10.913
▁온도	-10.9135
웃음을	-10.9136
▁시켰	-10.914
쉽	-10.9142
▁응원하는	-10.9142
선물	-10.9147
▁대통령도	-10.9147
분은	-10.9155
취업	-10.9155
▁알려주	-10.916
놔두고	-10.9165
▁안맞	-10.9166
▁이따	-10.9177
▁살아남	-10.9178
맞지	-10.9178
▁안했다	-10.9179
▁치우	-10.918
아프	-10.918
영수	-10.9181
웅	-10.9183
할께	-10.9183
▁뒤질	-10.9184
▁대머리	-10.9187
키고	-10.9187
일만	-10.9188
▁안오	-10.919
납	-10.9196
브	-10.9196
▁낳을	-10.9198
계란	-10.9198
▁기뻐	-10.9199
▁싫어하	-10.92
▁안된다는	-10.9205
클럽	-10.921
H	-10.9211
햐	-10.9211
갱	-10.9214
힘들	-10.9214
터지	-10.9215
▁말해주	-10.9216
▁투수들	-10.9216
절로	-10.9218
상관없이	-10.922
▁무슨말	-10.9224
▁기기	-10.9226
▁눈앞에	-10.9226
빙	-10.9229
멸	-10.9229
▁차가	-10.9237
▁어릴	-10.9238
봅니다	-10.9239
콜	-10.924
▁도둑놈	-10.9242
축하	-10.9242
건강	-10.9243
▁아는형님	-10.9245
엣지	-10.9246
스트레스	-10.9247
▁만난	-10.925
첨	-10.925
하다보니	-10.9252
멤버	-10.9254
앱	-10.9256
▁했냐	-10.9259
인줄알	-10.9264
졸	-10.9264
상담	-10.9265
▁날까	-10.9266
프로그램	-10.9267
▁들어온	-10.9267
힘내세요	-10.927
G	-10.927
젤	-10.9271
성공	-10.9272
관련	-10.9273
으신	-10.9274
▁나가야	-10.9274
정유라	-10.9274
청와대	-10.9274
카톡	-10.9275
곧	-10.9275
것들아	-10.9277
테러	-10.9278
벌써	-10.9279
업무	-10.9279
조심	-10.9282
점점	-10.9282
모르겠다	-10.9287
들어가	-10.9289
범죄자	-10.929
▁혹사	-10.929
재산	-10.9292
세금으로	-10.9293
어찌	-10.9293
시켜야	-10.9295
놀이	-10.9297
연애	-10.93
▁통수	-10.9302
자니	-10.9303
▁안하지	-10.9304
▁체포	-10.9305
▁뒤집어	-10.9305
▁놀러	-10.9306
표정	-10.9308
해야하는데	-10.9311
당신	-10.9314
끝나	-10.9323
14	-10.9325
▁하실	-10.9325
사이에	-10.9329
와중에	-10.9329
많아서	-10.933
나게	-10.9334
였습니다	-10.9336
지금까지	-10.9337
수입	-10.9343
동물	-10.9344
들어가서	-10.9347
▁무엇이	-10.9351
▁있긴	-10.9352
해봐	-10.9353
▁어떻	-10.9355
그런지	-10.9355
주정도	-10.9357
오른다	-10.9357
잇어요	-10.9357
도대체	-10.9359
▁ᄏᄏᄏᄏᄏᄏᄏᄏᄏᄏᄏᄏᄏ	-10.936
자르	-10.9363
하는건가	-10.9364
순이	-10.937
당해도	-10.9372
▁물어보	-10.9375
비율이	-10.9376
▁연습생	-10.9377
▁느껴지	-10.9379
맛이	-10.9382
▁전달	-10.9383
졌어요	-10.9387
거부	-10.9388
▁건가	-10.9389
▁신부	-10.9395
▁감방에	-10.9397
넘들이	-10.941
▁큰거	-10.9415
▁쉬는	-10.9418
▁쿠데타	-10.9418
▁살고있는	-10.9418
운동을	-10.9419
▁소식이	-10.9419
▁안되나	-10.9422
자식	-10.9423
결혼은	-10.9425
▁까는	-10.9426
▁여러분들	-10.9434
▁윗대가리	-10.9437
▁차는	-10.9439
마니	-10.9444
▁뭐래	-10.9445
될까봐	-10.9446
▁충격이	-10.9447
▁섹시	-10.945
▁기가	-10.945
▁물어보는	-10.9453
▁모르겟	-10.9454
▁대한민국에	-10.9454
▁조종	-10.9455
▁경질	-10.9456
야합니다	-10.9456
▁지키는	-10.9456
립니다	-10.9457
▁가족들	-10.9457
▁합격	-10.9459
▁엉망	-10.946
거예요	-10.9461
▁집행	-10.9462
마지막에	-10.9462
▁자괴감	-10.9463
▁생각했	-10.9464
▁스펙이	-10.9465
▁줬	-10.9467
▁나고	-10.9467
▁북한에	-10.9467
▁면회	-10.9469
뱅	-10.9472
▁성인이	-10.9475
▁기상캐스터	-10.9476
16	-10.9479
생각나	-10.9483
댐	-10.949
해지	-10.9495
년뒤	-10.95
한달	-10.95
▁있는걸	-10.9502
▁불쌍하다	-10.9502
▁두명	-10.9504
▁없었다	-10.9505
민이	-10.9506
한건가	-10.9507
라곤	-10.951
준다는	-10.9517
▁매달	-10.9519
▁세우	-10.952
▁정형돈	-10.952
▁언젠가	-10.9521
▁고등학생	-10.9527
세대	-10.9528
▁있었어	-10.953
지도않고	-10.953
▁늘어나	-10.953
▁저러다	-10.9532
▁공무원들	-10.9532
▁사지	-10.9535
날두	-10.9536
▁콩밥	-10.9538
▁부끄럽지	-10.9539
▁천사	-10.9542
▁시골	-10.9543
▁이직	-10.9545
되기	-10.9547
▁아무말	-10.9547
몫	-10.955
▁연예	-10.955
▁최순실은	-10.9551
새기들	-10.9554
▁지하	-10.9554
▁느낀	-10.9556
▁중국인	-10.9556
▁지나가는	-10.9556
텐	-10.9556
즐	-10.9556
산다	-10.9557
▁중간	-10.956
▁브랜드	-10.956
▁병신같은	-10.9562
남자가	-10.9563
엑	-10.9566
▁개그맨	-10.9567
▁쓰는거	-10.9567
기면	-10.9571
▁같기도	-10.9572
라운드	-10.9573
▁개정	-10.9576
랍	-10.9577
▁혐오	-10.9579
▁있잖아	-10.9579
▁사퇴	-10.958
찮	-10.9582
벼	-10.9583
▁ᄒᄒᄒᄒᄒ	-10.9583
측	-10.9585
▁놀라운	-10.9585
♥♥	-10.9587
조각	-10.9587
▁노승일	-10.9589
▁있겠지	-10.959
팍	-10.959
▁느껴지네	-10.9591
E	-10.9592
·	-10.9592
▁ᄎᄏᄎᄏ	-10.9592
▁거듭	-10.9592
▁끝판왕	-10.9592
▁라멜라	-10.9592
▁못생겨서	-10.9592
▁문체부	-10.9592
▁믿으	-10.9592
▁밧데리	-10.9592
▁브렉시트	-10.9592
▁산부인과	-10.9592
▁슬픔	-10.9592
▁어쨌든	-10.9592
▁업데이트	-10.9592
▁이벤트	-10.9592
▁주한미군	-10.9592
▁최재원	-10.9592
▁쵝오	-10.9592
▁테블릿	-10.9592
ᅥ	-10.9592
▁김혜수	-10.9592
▁뒷통수	-10.9592
▁바뀔	-10.9592
▁박신혜	-10.9592
▁보톡스	-10.9592
▁오버워치	-10.9592
▁챙피하	-10.9592
▁간절히	-10.9592
▁당분간	-10.9592
▁양준혁	-10.9592
▁순식간	-10.9592
▁잔인한	-10.9592
▁mbc	-10.9592
▁남잔데	-10.9592
▁언냐들	-10.9592
▁명복을빕니다	-10.9592
▁모르쇠	-10.9592
▁이세영	-10.9592
▁조인성	-10.9592
▁SNS	-10.9592
▁깔끔하	-10.9592
▁땡큐	-10.9592
▁꽃뱀	-10.9592
▁ᄆᄎ	-10.9592
▁몽둥이	-10.9592
▁북괴	-10.9592
▁평화시위	-10.9592
▁홍콩	-10.9592
▁노홍철	-10.9592
▁개인정보	-10.9592
▁터널	-10.9592
▁어버이	-10.9592
▁왔다갔다	-10.9592
▁굉장히	-10.9592
▁토익	-10.9592
▁다스리	-10.9592
▁백쌤	-10.9592
▁공중파	-10.9592
▁뚱뚱한	-10.9592
▁비정규직	-10.9593
▁팍팍	-10.9593
▁응원하겠습니다	-10.9593
♥♥♥♥♥♥	-10.9593
▁미쿡	-10.9593
▁실컷	-10.9593
▁김현수	-10.9593
부턴	-10.9593
▁날강도	-10.9593
▁방귀	-10.9593
▁리스트	-10.9594
▁면접보러	-10.9594
▁역습	-10.9594
▁몰락	-10.9594
▁액정	-10.9594
▁방탄	-10.9594
녀ᄂ	-10.9594
▁김구라	-10.9594
▁성능	-10.9594
▁드론	-10.9594
▁쪼개	-10.9594
▁잊혀지	-10.9594
▁유난히	-10.9594
▁이득	-10.9595
▁형돈오빠	-10.9595
km	-10.9595
▁집단이	-10.9595
▁미용사	-10.9595
▁가난	-10.9595
▁극복	-10.9595
▁시민의식	-10.9596
▁손잡고	-10.9596
거같아	-10.9597
▁예외	-10.9597
▁사찰	-10.9597
▁끝났	-10.9597
▁갈색	-10.9598
▁보름	-10.9598
▁등골	-10.9598
▁성욕	-10.9598
났으면	-10.9598
▁호갱	-10.9599
▁따지	-10.9599
▁장담	-10.9599
▁흥해라	-10.9599
▁백퍼	-10.9599
▁뜯어	-10.96
▁치매	-10.96
▁폐지하라	-10.96
▁승마	-10.9601
▁단종	-10.9602
▁터졌다	-10.9602
!!!!!!!!!!!	-10.9602
▁현실화	-10.9602
문제는	-10.9602
▁찾아보니	-10.9602
▁섭외	-10.9602
▁더더욱	-10.9603
▁잃어	-10.9603
▁부럽습니다	-10.9603
▁김태	-10.9603
▁깨끗한	-10.9603
▁:)	-10.9603
▁별루	-10.9604
▁유승	-10.9604
▁생각난다	-10.9604
▁어쩌라고	-10.9605
▁지들끼리	-10.9605
▁나옵니다	-10.9605
▁생명체	-10.9605
묘한	-10.9606
▁최저	-10.9606
▁소중	-10.9606
▁밀당	-10.9606
▁지린다	-10.9607
▁안나옴	-10.9607
▁흐르	-10.9607
▁로마	-10.9607
▁뒈지	-10.9608
▁자랑스러워요	-10.9608
게이트	-10.9608
▁나혼자	-10.9608
▁갈등	-10.9609
▁부산행	-10.961
▁편집	-10.961
▁뇌물죄	-10.961
▁부끄러운	-10.9611
▁최고인듯	-10.9612
---------------	-10.9612
▁정직	-10.9612
▁더럽히	-10.9612
인거야	-10.9613
▁인제	-10.9613
▁알았어요	-10.9613
▁제출	-10.9614
난거	-10.9614
▁돈받	-10.9615
▁나바로	-10.9615
▁뻔	-10.9616
▁따뜻하	-10.9616
▁권한	-10.9616
▁멤버들이	-10.9619
다간	-10.9619
▁술먹고	-10.9619
▁광장에	-10.9619
▁별거	-10.962
▁가족이	-10.962
▁나이스	-10.962
▁사라졌	-10.9621
▁방해	-10.9621
▁자연재해	-10.9621
▁테임즈	-10.9621
▁기저귀	-10.9621
▁냉장고	-10.9621
▁뒤통수	-10.9621
▁마동석	-10.9621
▁바이러스	-10.9621
▁샤오미	-10.9621
▁천천히	-10.9621
▁누군지	-10.9621
▁목숨걸고	-10.9621
▁sbs	-10.9621
▁나왔다고	-10.9621
▁예민한	-10.9621
▁김광현	-10.9622
▁김수현	-10.9622
▁갤럭시노트	-10.9622
▁안한다	-10.9622
▁한잔	-10.9622
▁저번	-10.9622
▁막막해요	-10.9623
▁생산직	-10.9623
빼곤	-10.9623
▁이상한건가요	-10.9624
▁흐름	-10.9624
▁1500	-10.9624
▁방어율	-10.9624
▁어느날	-10.9625
▁보상금	-10.9625
특집	-10.9626
▁동물원	-10.9626
▁170	-10.9627
▁댓글부대	-10.9627
인척	-10.9627
▁신중	-10.9627
▁스쿼트	-10.9627
▁느낀다	-10.9628
▁용돈	-10.9628
▁그리구	-10.9629
▁예산	-10.9629
▁든든	-10.9629
▁예쁘게	-10.963
▁야신	-10.963
▁애미	-10.963
▁있겠지만	-10.9631
▁있었다면	-10.9631
▁엉덩이	-10.9632
▁비와이	-10.9633
▁문신	-10.9633
▁생겨서	-10.9634
▁순실아	-10.9634
▁된장	-10.9635
▁나오겠네	-10.9635
떡	-10.9636
▁고발	-10.9637
▁오지게	-10.9638
나여	-10.9638
▁반복	-10.9639
▁박살	-10.964
▁알면서도	-10.964
▁잘생겼네	-10.964
▁삼성꺼	-10.9641
▁태워	-10.9641
년놈들	-10.9642
차이	-10.9642
비리	-10.9642
▁의외네	-10.9642
▁않았는데	-10.9642
▁공정	-10.9643
▁신기한	-10.9644
▁의무	-10.9645
▁있니	-10.9647
▁흐	-10.9649
수사	-10.9649
▁세계최고	-10.9651
스터	-10.9652
아요	-10.9652
▁게임이	-10.9652
▁구린	-10.9653
▁생활비	-10.9653
▁연출	-10.9653
▁생각하니	-10.9654
▁음원	-10.9654
▁연말	-10.9655
▁아니구	-10.9657
▁자다가	-10.9658
▁헤어지면	-10.9659
▁백종원	-10.966
▁안되나요	-10.9661
▁엄마한테	-10.9661
▁시키면	-10.9663
▁포수	-10.9664
▁이꼴	-10.9665
▁오호	-10.9666
▁죄송하	-10.9668
▁올리면	-10.9669
▁에릭	-10.9669
신기	-10.967
▁이러면서	-10.967
▁망하게	-10.9672
되었	-10.9672
▁에효	-10.9672
▁제조사	-10.9673
▁NC	-10.9673
▁뜬금없이	-10.9673
▁마누라	-10.9673
▁믿음이	-10.9673
▁월드컵	-10.9673
▁쪽빠리	-10.9673
▁수영	-10.9673
▁마사지	-10.9673
▁가까이	-10.9673
할래	-10.9673
▁망하면	-10.9674
▁교회	-10.9675
▁꼴찌	-10.9675
▁받으세요	-10.9675
▁콩밥먹	-10.9675
▁세워	-10.9676
▁오우	-10.9677
▁호랑이	-10.9678
▁잘사는	-10.9678
▁채용	-10.9679
▁처음이라서	-10.968
▁박탈	-10.968
연승	-10.9681
사모	-10.9682
▁맥주	-10.9682
▁기대된다	-10.9683
뎅이	-10.9683
▁말로만	-10.9683
▁장애인	-10.9684
다음에	-10.9684
한태	-10.9684
▁상승	-10.9685
▁장난하냐	-10.9686
▁답답하다	-10.9686
▁가능한가요	-10.9688
▁느낄	-10.9688
▁인간이냐	-10.969
세트	-10.969
▁번개	-10.969
▁초보	-10.9692
▁무섭게	-10.9692
▁일제	-10.9693
▁성실	-10.9693
▁조용	-10.9695
▁써야	-10.9695
▁해줘라	-10.9695
▁달러	-10.9695
▁발목	-10.9696
▁사용자	-10.9698
▁놀랍다	-10.9698
▁타격이	-10.97
▁테러범	-10.9701
▁늙어	-10.9702
▁맛난	-10.9702
▁보세요	-10.9703
▁기다리기	-10.9704
▁전력	-10.9707
▁통장	-10.9712
▁낫네	-10.9712
▁불과	-10.9712
▁국민들에게	-10.9712
▁김대중	-10.9714
▁고무신	-10.9715
▁정신과	-10.9717
▁180	-10.9717
▁애니	-10.9717
▁싫고	-10.9718
중이라	-10.9719
▁k	-10.9722
▁잠깐	-10.9722
▁영국이	-10.9723
▁말아라	-10.9723
차이가	-10.9723
▁그랬는데	-10.9723
▁섞	-10.9724
▁중요하다	-10.9725
▁연속	-10.9725
▁젖	-10.9726
▁썅	-10.9726
▁법정	-10.9726
▁동료	-10.9728
▁갑시다	-10.9728
▁건너	-10.9729
▁시체	-10.9729
▁조심하세요	-10.9729
리면	-10.9731
▁일어나면	-10.9731
▁품질	-10.9732
▁영장	-10.9732
▁버려	-10.9733
▁묘하	-10.9733
▁멤버들	-10.9735
▁자동	-10.9736
▁집어	-10.9736
▁이적	-10.9741
▁그땐	-10.9741
것보다	-10.9741
▁수업	-10.9743
▁의경	-10.9744
기사는	-10.9745
▁비싸게	-10.9745
▁쌍	-10.9747
▁힘으로	-10.9747
▁민중	-10.9749
저가	-10.975
넣어	-10.9751
인해	-10.9751
▁나쁜년	-10.9752
▁땅에	-10.9752
▁대국	-10.9753
▁봉사	-10.9753
▁돌아가는	-10.9754
▁살자	-10.9754
▁때리	-10.9755
▁주작	-10.9757
언니들	-10.9758
▁각자	-10.9758
▁멋지고	-10.9758
▁분들께	-10.9759
▁하도	-10.9759
▁휘	-10.976
▁헤어졌다	-10.976
▁분야	-10.9762
있는지	-10.9762
길레	-10.9765
▁삭	-10.9765
▁하루하루를	-10.9766
▁이불	-10.977
▁쓸데없	-10.977
▁이상한거	-10.9772
▁적당	-10.9773
▁나오네요	-10.9775
어짜	-10.9775
▁감사한	-10.9776
▁맞는말	-10.9778
▁많으십니다	-10.9779
▁ᄋᄉᄋ	-10.9779
▁ᅢ	-10.9779
너도	-10.9781
▁영업	-10.9784
만세	-10.9784
▁경영	-10.9785
▁아니었나	-10.9786
▁개입	-10.9787
거아님	-10.9787
▁보냈	-10.9787
▁다른데	-10.9787
▁따지면	-10.9789
▁밥이	-10.979
▁댓글알바들	-10.979
▁귀한	-10.9791
▁소수	-10.9792
▁고생한	-10.9792
▁사진만	-10.9793
▁자기도	-10.9795
▁먹기	-10.9796
▁좋겠네요	-10.9796
▁댓글을	-10.9798
▁생리를	-10.9799
▁받아라	-10.98
▁기계	-10.9801
▁먹어라	-10.9803
▁앞날	-10.9803
▁흑	-10.9803
▁전역	-10.9804
▁넣	-10.9805
▁전원	-10.9805
▁빨라	-10.9807
▁좋아해서	-10.9807
▁생각이나	-10.9808
▁몇일전	-10.981
▁힘내라	-10.9811
▁휴식	-10.9814
했구먼	-10.9815
기전	-10.982
▁종이	-10.9823
▁업소	-10.9823
▁정확한	-10.9824
▁다이어트를	-10.9826
▁사야	-10.9829
었다면	-10.9832
▁g	-10.9832
▁정의는	-10.9833
▁쌀	-10.9833
▁있더라	-10.9833
▁테스트	-10.9834
동이	-10.9834
▁끊기	-10.9837
▁우울해	-10.9837
▁입학	-10.9841
▁순수	-10.9842
놈들아	-10.9843
▁올리고	-10.9846
▁너와	-10.9849
▁김치년들	-10.9851
▁자국	-10.9856
누구	-10.9857
건강한	-10.9861
▁되기	-10.9865
돈은	-10.9869
장에	-10.987
▁많으니	-10.9872
하시고	-10.9872
▁그걸로	-10.9872
▁사태	-10.9872
▁청와대에서	-10.9877
▁갈아	-10.9879
했을때	-10.988
드려야	-10.9881
됫	-10.9883
▁조윤선이	-10.9884
▁ᅡ	-10.9888
기고	-10.9891
일째	-10.9893
▁개선	-10.9894
▁내시	-10.9898
속도	-10.9901
▁형이	-10.9901
▁민심이	-10.9902
구석	-10.9904
▁고객	-10.9904
▁방법은	-10.9905
▁열자	-10.9908
잇는	-10.9909
▁슈	-10.991
▁설사	-10.9914
쟁이들	-10.9915
보수	-10.9916
하시네요	-10.9917
투어	-10.9918
▁먹었는데	-10.992
▁당하고	-10.9921
▁안마	-10.9922
▁꽃길	-10.9926
불가	-10.9926
▁다니기	-10.9929
▁니네들	-10.9929
▁귀가	-10.993
▁관심을	-10.9934
▁기분좋	-10.9937
부리	-10.9937
있던	-10.9938
긴하지만	-10.9943
▁더럽다	-10.9943
▁악마가	-10.9944
▁증언	-10.9945
▁그런말	-10.9945
▁폰이	-10.9947
▁대학을	-10.9948
새끼야	-10.9949
▁재수없	-10.9951
▁말이야	-10.9953
▁살았	-10.9955
▁돌리	-10.9955
▁재수	-10.9957
었지만	-10.9957
오늘도	-10.9959
▁어리	-10.996
다는건	-10.9961
▁국민성이	-10.9962
아이	-10.9965
해야하는지	-10.9965
▁국가에서	-10.9968
멋	-10.9969
한걸까요	-10.9969
▁죽일	-10.997
점이	-10.9972
▁계기	-10.9975
위기	-10.998
▁불매운동	-10.998
▁경찰서	-10.9985
하야	-10.9988
▁사형시키	-10.9989
▁거임	-10.9989
질까	-10.9991
▁과정	-10.9993
▁쿵	-10.9994
▁했겠지	-10.9995
!!^^	-10.9996
▁제목만	-10.9997
보호	-10.9998
뎅	-11.0001
▁했구나	-11.0004
▁없어질	-11.0004
▁마리	-11.0009
해준다	-11.0011
▁제작	-11.0014
뜨면	-11.0014
▁악플다	-11.0014
▁지켜보	-11.0016
▁선동질	-11.0017
이었으면	-11.0017
나올	-11.002
▁동시	-11.002
▁무슨일이	-11.002
▁우승을	-11.0024
깐	-11.0031
▁들어가서	-11.0039
▁마구	-11.004
볼때	-11.0041
▁입이	-11.0042
▁아줌마들	-11.0043
줄게	-11.0049
▁할수있을까요	-11.005
▁드라마나	-11.0051
왓	-11.0052
아픈	-11.0052
▁ᅮᅮᅮᅮ	-11.0054
붙	-11.0055
했다는데	-11.0055
▁형제	-11.0059
▁정치에	-11.0059
자야	-11.0061
▁미국을	-11.0064
▁쓰레기들은	-11.0066
세여	-11.0069
▁박아	-11.007
▁연대	-11.0073
▁둘중	-11.0074
고민이	-11.0077
한달동안	-11.0077
...;;	-11.0078
돼지들	-11.0083
행복하게	-11.0085
다들	-11.0088
년아	-11.0089
▁청와대에	-11.0091
▁만드는거	-11.0091
보도	-11.0094
▁엄청나	-11.0095
▁일반인들	-11.0096
는데요	-11.0097
▁않겠지	-11.0097
올라	-11.0098
▁줄서	-11.01
▁절대로	-11.0101
▁미안해서	-11.0101
뽑	-11.0105
지면	-11.0105
었냐	-11.0107
▁소신	-11.0113
▁듣지	-11.0113
▁책임지	-11.0115
▁잘살	-11.0115
▁성과	-11.0117
▁신나	-11.0117
수있을까요	-11.0119
머임	-11.0121
▁머리로	-11.0123
거같네요	-11.0135
▁되냐	-11.0135
크로	-11.0136
▁안보이	-11.0136
더라구여	-11.0137
둔	-11.0138
▁존잘	-11.014
▁된다면	-11.014
▁봐요	-11.0142
▁써요	-11.0155
평	-11.0163
▁껴	-11.0165
▁비싸다	-11.0168
e	-11.0168
라면서	-11.0169
▁보는거	-11.0182
버려서	-11.0183
▁된다는	-11.0187
▁걱정은	-11.0189
대위	-11.0196
▁대단하	-11.0197
▁벽	-11.0198
▁깨지	-11.0198
고있는	-11.0207
▁알게되	-11.0208
기간	-11.021
▁아쉽	-11.0212
올때	-11.0213
닥	-11.0214
된다면	-11.022
▁풍	-11.0223
껴	-11.0228
읽	-11.0228
r	-11.0229
▁재벌들	-11.0236
▁양키	-11.0237
경우	-11.0248
차선	-11.0248
했을까	-11.0249
됬네	-11.025
▁해외에서	-11.0253
▁다운	-11.0263
곳에서	-11.0265
겄다	-11.0266
해주시	-11.0269
▁편하	-11.0269
▁좋을	-11.0273
▁의외	-11.0273
▁시킨	-11.0274
▁찍었	-11.0275
▁중고	-11.0276
▁D	-11.0277
로지	-11.0277
▁안되요	-11.0286
등급	-11.0292
▁용기있	-11.0293
놨	-11.0295
동네	-11.0296
낳	-11.0296
12	-11.0299
▁불편하	-11.0309
▁변화	-11.0316
제도	-11.0317
놓으면	-11.0318
▁밥도	-11.0324
▁잃	-11.0326
▁모습에	-11.033
이랍니다	-11.0331
▁이러려	-11.0333
▁하는데요	-11.0334
▁싫은	-11.0336
▁걸까	-11.0337
주는거	-11.034
▁심하다	-11.0342
▁보임	-11.0346
▁장난아니네	-11.0348
일날	-11.0353
부터가	-11.0356
▁재미있는	-11.0356
▁만원	-11.0357
훈이	-11.0357
해보신	-11.036
▁하나만	-11.0361
차는	-11.0362
▁밤새	-11.0368
▁사라	-11.037
▁붙이	-11.0371
▁생각해서	-11.0372
▁술집	-11.0374
▁사자	-11.0376
▁순위	-11.0382
▁대단한거	-11.0388
▁능력이	-11.039
▁알수	-11.039
대표	-11.0394
물고	-11.0395
선수들이	-11.0396
▁지났	-11.0397
▁만들지	-11.0398
▁나두	-11.0406
모습이	-11.0406
▁잘한	-11.041
▁루	-11.0413
▁가네	-11.0416
렸던	-11.0422
설치	-11.0427
▁입을	-11.0433
되려나	-11.0438
▁소름이	-11.044
▁주시는	-11.0442
▁다니다	-11.0443
▁기사로	-11.0444
있어야	-11.045
마지막까지	-11.0451
▁뽑는	-11.0452
상은	-11.0457
얘기를	-11.0459
▁이년	-11.0462
!!!!!!!!!!!!!!	-11.0463
안되면	-11.0463
까바	-11.0466
▁팀이	-11.0469
▁하나님	-11.0469
▁불가능한	-11.0469
▁선진국이	-11.047
▁머가	-11.0474
못할	-11.0478
았습니다	-11.0479
듣	-11.0484
▁댓글들	-11.0485
가리	-11.0486
▁나같	-11.0487
▁남기	-11.0488
는다고	-11.0489
하고있네	-11.0495
▁ᄏᄏᄏᄏᄏᄏᄏᄏᄏᄏᄏᄏᄏᄏ	-11.0497
심히	-11.0498
▁잡는	-11.0499
▁아이폰이	-11.05
받은	-11.05
모르겠어요	-11.0502
년들	-11.0504
식을	-11.0505
▁게임은	-11.0506
▁습	-11.0506
질이	-11.0507
▁고집	-11.051
연이	-11.051
▁블	-11.0511
만들고	-11.0514
거아냐	-11.0516
시키들	-11.0518
▁조마조마	-11.052
기준	-11.0521
▁저랬	-11.0523
▁괜찮을	-11.0523
▁이름도	-11.0524
▁생각하지	-11.0525
기위해	-11.0526
사업	-11.0528
근혜	-11.0528
▁없어지는	-11.0531
▁일등	-11.0541
▁통화	-11.0542
▁만날수	-11.0545
조선	-11.0558
될지	-11.0559
실이	-11.0559
▁배신자	-11.0559
씩이나	-11.0561
▁다른곳	-11.0562
▁안와	-11.0568
꺼에요	-11.0569
▁저사람	-11.0574
▁하죠	-11.058
▁노래가	-11.059
▁빼라	-11.0592
▁안타	-11.0594
으며	-11.0598
▁자신들	-11.0602
▁생신	-11.0603
해보이	-11.0605
▁즐라탄	-11.0608
통해서	-11.0609
▁고의	-11.0609
▁회	-11.061
▁어울리	-11.061
▁죽음이	-11.0616
▁알바들이	-11.0618
@	-11.062
얼굴이	-11.0625
보러	-11.0626
증상	-11.0629
▁캐럿	-11.063
▁다가가	-11.0631
▁앞서	-11.0635
▁욕먹	-11.0636
▁구하기	-11.0645
이라는데	-11.0649
억원	-11.0649
▁저런걸	-11.0651
억지로	-11.0654
스코	-11.0654
▁파괴	-11.0657
각이	-11.0657
▁말에	-11.0666
▁겨울이	-11.0666
떠	-11.0667
▁뻔뻔	-11.067
▁유가족	-11.067
가면서	-11.0675
▁값	-11.0684
;;;;;;	-11.0685
▁한일	-11.0685
▁똑똑	-11.0688
겁니까	-11.0689
시위	-11.0689
▁없나봐	-11.0692
▁편한	-11.0693
많아	-11.0698
▁동의	-11.0699
는것을	-11.0702
v	-11.0705
▁괜찮은건가	-11.0707
▁저같은	-11.0717
▁책임질	-11.0717
스럽	-11.0718
포기	-11.0718
자들은	-11.0721
▁조센징	-11.0723
야할듯	-11.0728
있게	-11.0729
▁양반	-11.0729
우는	-11.073
무가	-11.073
해야하나요	-11.0733
▁겁니다	-11.074
해보고	-11.0744
끄	-11.0744
▁떠난	-11.0745
▁미안하	-11.0745
▁저런사람	-11.0745
▁전문가	-11.0748
▁될거	-11.075
타서	-11.0751
▁찐따	-11.0751
하자고	-11.0751
없다고	-11.0751
▁입장이	-11.0755
바꾸	-11.0756
말에	-11.0758
든가	-11.0758
▁이라는	-11.0758
특	-11.0759
▁환	-11.076
야하는데	-11.0761
▁바꿀	-11.0761
얼마	-11.0763
▁없는지	-11.0764
▁주면	-11.0765
▁뭐하나	-11.077
큼	-11.077
▁다를	-11.0775
이겠지	-11.0776
▁납득	-11.0778
▁잘되	-11.0787
▁모르니	-11.0788
하니깐	-11.0791
▁왠일	-11.0791
▁받아먹	-11.0793
▁해주시	-11.0794
열이	-11.0798
▁촛불들	-11.0798
였냐	-11.0799
▁되었	-11.0801
네요ᅲᅲ	-11.0801
▁진실이	-11.0803
▁쟤네	-11.0808
친구한테	-11.0809
▁미개	-11.0814
▁하이	-11.0815
대대로	-11.0819
▁생긴거	-11.082
▁경험이	-11.082
▁터진	-11.0822
▁사전	-11.0822
제로	-11.0825
시대에	-11.0826
시네요	-11.083
여자친구	-11.0832
목소리	-11.0839
▁부족하	-11.0847
행복	-11.0848
보험	-11.0848
잇다	-11.085
ᄎ	-11.0858
▁통해	-11.0859
▁적용	-11.0859
씀	-11.0869
한건가요	-11.087
안될	-11.087
최	-11.087
시간만	-11.087
쪄	-11.0872
▁망했	-11.0872
눈에	-11.0875
겁	-11.0876
끈	-11.0877
쇄	-11.0877
▁학생들	-11.0879
처음	-11.088
삐	-11.0882
▁투입	-11.0883
천만원	-11.0889
▁백만	-11.0891
▁33	-11.0892
그러는지	-11.0893
투표	-11.0895
띠	-11.0895
▁문죄인	-11.0896
▁한것	-11.0897
댈	-11.0898
탁	-11.0899
버전	-11.09
t	-11.0902
이라며	-11.0903
▁전여친	-11.0904
b	-11.0905
▁쓰레기다	-11.0905
▁이쁘네	-11.0906
흔	-11.0907
깡	-11.0907
X	-11.0908
확률이	-11.0908
멀	-11.0909
▁알고보니	-11.0909
c	-11.0909
정책	-11.0911
ᅡ	-11.0912
샘	-11.0912
여러분	-11.0914
궁	-11.0914
컨	-11.0915
▁불만	-11.0915
범죄	-11.0916
꼬라지	-11.0916
▁크기	-11.0917
흑	-11.0917
쎄	-11.092
아버지	-11.0926
400	-11.093
멸망	-11.093
▁멸하	-11.0931
핑계	-11.0932
낮	-11.0932
먹었는데	-11.0932
흠	-11.0933
올림픽	-11.0933
▁올라오	-11.0933
▁틀어	-11.0934
훈련	-11.0934
겜	-11.0934
▁넘이	-11.0934
안녕하세요	-11.0936
부탁	-11.0936
아닐까	-11.0937
퇴근	-11.0937
혁명	-11.0937
위험	-11.0938
싹	-11.0938
아침에	-11.0939
천재	-11.0939
보내라	-11.0939
박이	-11.0939
말씀	-11.094
더러운	-11.094
작품	-11.094
거짓말	-11.094
▁기사는	-11.0941
걍	-11.0941
무시	-11.0942
▁변태	-11.0943
택시	-11.0944
그러니	-11.0945
는듯	-11.0945
▁왠만	-11.0946
무리	-11.0947
불러	-11.0949
▁이러는	-11.0949
고인의	-11.095
▁연상	-11.0952
남편	-11.0953
기계	-11.0953
▁기복	-11.0953
▁좋아할	-11.0954
▁언니들	-11.0954
있었는데	-11.0955
인지도	-11.0956
기술	-11.0956
꼬리	-11.0956
▁남겨	-11.0957
지않나요	-11.0958
설마	-11.0959
??????????	-11.096
헤	-11.0961
피디	-11.0962
데리고	-11.0963
▁동갑	-11.0964
▁준다	-11.0968
▁피곤	-11.0969
그동안	-11.0972
할수도	-11.0973
▁보고싶어	-11.0974
하구만	-11.0975
사태	-11.0975
권력	-11.0975
▁삥뜯	-11.0977
▁짱꼴라	-11.0979
▁귀엽	-11.0981
똑같	-11.0983
셔도	-11.0983
▁팔고	-11.0987
▁이런말	-11.0989
거리고	-11.0989
가능성이	-11.0992
▁기어	-11.0994
듯한	-11.0995
▁고문이	-11.0996
써라	-11.0996
맞나	-11.0998
리를	-11.1
좋을까요	-11.1
해체	-11.1
조건	-11.1001
40	-11.1002
이미지	-11.1003
▁고생이	-11.1003
살아라	-11.1004
합의	-11.1004
▁무슬림들	-11.1005
▁감성	-11.1005
많아요	-11.1008
살면서	-11.1009
손으로	-11.1009
진심으로	-11.1011
▁폐기	-11.1011
직장	-11.1014
▁필요없는	-11.1016
프리	-11.1023
▁민심	-11.1023
▁나는데	-11.1024
▁기술이	-11.1024
아이가	-11.1025
▁바라는	-11.1026
▁재석	-11.1026
내내	-11.1026
▁보였	-11.1028
.5	-11.1029
▁천벌	-11.1029
지말라	-11.103
..;;	-11.1031
;;;;;;;	-11.1034
직원들	-11.1036
▁올립니다	-11.1037
▁올라가	-11.1038
받을수	-11.1039
▁기세	-11.1042
▁의문이	-11.1044
위한	-11.1044
▁~~~~~	-11.1049
▁다녔	-11.1049
▁꼭두각시	-11.105
▁내보내	-11.1054
▁올해도	-11.1055
▁잼있	-11.1055
▁유명	-11.1055
▁친일파들	-11.1056
▁사과하	-11.1058
둘다	-11.1058
▁반응이	-11.1059
▁뺏	-11.1059
▁서럽	-11.1061
▁찾	-11.1062
▁삶이	-11.1063
▁죽였	-11.1064
번이	-11.1071
기관	-11.1075
티나	-11.1077
~♡	-11.1082
좋으면	-11.1085
자리에	-11.1087
생일	-11.1088
▁이주	-11.1093
▁배워	-11.1094
▁이뤄	-11.1098
들보면	-11.11
한화	-11.1102
▁직업이	-11.1106
함을	-11.111
▁성범죄	-11.1113
▁신제품	-11.1115
▁의도	-11.112
▁짤	-11.1123
없었	-11.1124
선발	-11.1133
정상	-11.1137
▁하구	-11.114
살에	-11.1141
▁동물들	-11.1146
▁각오	-11.1147
▁방학	-11.1147
▁시원하	-11.1148
안해도	-11.1148
내리고	-11.1148
▁벗어	-11.1148
▁에너지	-11.1149
▁어머	-11.1151
▁불량	-11.1152
기록	-11.1154
행이	-11.1156
▁이자	-11.1158
▁출장	-11.1158
▁지는	-11.1159
▁그쪽	-11.116
▁믿음	-11.1163
▁끌어내려	-11.1164
▁생존	-11.1164
처먹	-11.1165
▁컨셉	-11.1167
▁공익	-11.1168
뽑은	-11.1169
여자는	-11.1171
▁기쁨	-11.1175
▁회원	-11.118
▁여자분	-11.1182
공원	-11.1185
▁금요일	-11.1186
▁박원순	-11.1188
했다니	-11.1189
▁뜬금없	-11.1193
▁겪	-11.1193
▁잡히	-11.1195
▁비온다	-11.1198
▁있었나	-11.1199
▁유진	-11.12
▁색히	-11.1202
▁그만하자	-11.1204
이자	-11.1206
▁빛	-11.1206
▁뭐해	-11.1208
▁안산다	-11.121
수밖에	-11.1211
^^♡	-11.1214
지원	-11.1215
▁무너지	-11.1215
자국	-11.1219
민국	-11.122
▁위증죄	-11.1222
▁아랫	-11.1223
줬으면	-11.1223
▁밝은	-11.1223
▁다섯	-11.1223
잣	-11.1226
▁되야	-11.1226
▁강국	-11.1226
▁않겠다	-11.1226
드가	-11.1227
▁솔찍	-11.1227
할배	-11.1228
▁65	-11.123
▁작정	-11.1233
▁싸우고	-11.1234
▁자랑스럽	-11.1235
념	-11.1235
▁파렴치	-11.1236
▁행	-11.1236
▁먹을수	-11.1236
▁수십	-11.1238
쓴다	-11.124
▁굳	-11.124
깝	-11.124
▁조아	-11.1241
쑤	-11.1242
▁챙겨주	-11.1245
맞네	-11.1245
▁뒤집	-11.1245
▁입사	-11.1245
에대해	-11.1245
▁이런글	-11.1246
▁감사드리고	-11.1248
▁민주	-11.1248
▁디젤	-11.1248
▁꼴보기	-11.1249
픽	-11.125
▁당당하	-11.125
▁요번	-11.1251
후보	-11.1251
▁주전	-11.1251
뒀	-11.1251
ᄁ	-11.1252
▁좆	-11.1252
안보	-11.1253
좀비	-11.1254
▁파란	-11.1254
▁확실한	-11.1254
▁시국에	-11.1254
벅	-11.1255
▁코딩	-11.1255
▁말한	-11.1256
댁	-11.1256
셀	-11.1256
궈	-11.1256
칩	-11.1257
옵	-11.1257
▁소름돋	-11.1258
넷	-11.1258
ᅠᅠᅠᅠᅠᅠᅠᅠᅠᅠᅠᅠᅠᅠᅠ	-11.1258
▁흰색	-11.1258
밍	-11.1258
캄	-11.1258
▁차근차근	-11.1258
돠	-11.1258
줫	-11.1258
ᅦ	-11.1258
▁Jtbc	-11.1258
▁KBS	-11.1258
▁SBS	-11.1258
▁깊은	-11.1258
▁높네	-11.1258
▁높이	-11.1258
▁늑대	-11.1258
▁딘딘	-11.1258
▁로사리오	-11.1258
▁백악관	-11.1258
▁변희재	-11.1258
▁부동산	-11.1258
▁비선실세	-11.1258
▁소름끼치	-11.1258
▁소프트웨어	-11.1258
▁싶음	-11.1258
▁아닙니까	-11.1258
▁어쨋	-11.1258
▁오지랖	-11.1258
▁원더걸스	-11.1258
▁이탈리아	-11.1258
▁입덧이	-11.1258
▁제왕절개	-11.1258
▁주구장창	-11.1258
▁차태현	-11.1258
▁캠프	-11.1258
▁컨디션	-11.1258
▁혐의	-11.1258
▁형사처벌	-11.1258
긔	-11.1258
욧	-11.1258
▁yg	-11.1258
▁개상청	-11.1258
▁동물학대	-11.1258
▁소시오패스	-11.1258
▁송윤아	-11.1258
▁어딘가	-11.1258
▁역겨운	-11.1258
▁의미부여	-11.1258
▁정성룡	-11.1258
▁김국진	-11.1258
▁김정일	-11.1258
▁대갈통	-11.1258
▁스케이트	-11.1258
▁조정석	-11.1258
▁ai	-11.1258
▁글로벌	-11.1258
▁김무성	-11.1258
▁해운대	-11.1258
▁꽂아	-11.1258
▁도니님	-11.1258
▁삼겹살	-11.1258
▁이국주	-11.1258
▁김재규	-11.1258
▁일기예보	-11.1258
▁쿠테타	-11.1258
▁반가운	-11.1258
▁농협	-11.1258
▁서장훈	-11.1258
▁박태환	-11.1258
▁이명박근혜	-11.1258
▁조의연	-11.1258
▁축복	-11.1259
▁가임기	-11.1259
▁운전면허	-11.1259
vs	-11.1259
▁새삼스럽게	-11.1259
▁느껴져서	-11.1259
▁강하늘	-11.1259
▁빡대가리	-11.1259
▁안나와	-11.1259
▁동양인	-11.1259
▁물갈이	-11.1259
▁멋짐	-11.1259
나경원	-11.1259
///	-11.1259
▁단백질	-11.1259
▁김재현	-11.1259
▁대규모	-11.1259
▁슈퍼맨	-11.1259
▁답답합니다	-11.1259
▁근처에	-11.1259
▁90%	-11.1259
▁윤병세	-11.1259
▁특징	-11.1259
▁예측	-11.126
▁모텔	-11.126
▁거짓말쟁이	-11.126
▁추악하	-11.126
▁오승환	-11.126
▁최태민	-11.126
▁김민희	-11.126
▁족쳐라	-11.126
▁박영선	-11.126
▁불펜	-11.126
▁뛰어넘	-11.126
▁묵묵히	-11.126
이었구나	-11.126
▁히트	-11.1261
▁삭감	-11.1261
▁예정일	-11.1261
▁환영합니다	-11.1261
▁각종	-11.1261
▁칠레	-11.1261
▁방출	-11.1261
▁올시즌	-11.1261
▁기념	-11.1261
▁낙태	-11.1261
▁허허	-11.1262
학살	-11.1262
▁미친거아냐	-11.1262
▁후에	-11.1262
▁말이되냐	-11.1262
▁돌아온	-11.1262
▁전범기	-11.1262
▁충격적이	-11.1262
▁보기싫다	-11.1262
▁삼류	-11.1263
▁노친네들	-11.1263
▁추진	-11.1263
▁사죄하	-11.1263
▁폭식	-11.1263
▁팔뚝	-11.1263
▁중앙	-11.1264
▁민영화	-11.1264
▁조회수	-11.1264
▁가지가지한다	-11.1264
▁고딩	-11.1264
▁멋지세요	-11.1264
▁번역	-11.1264
▁흉기차	-11.1265
▁아쉽지만	-11.1265
▁자퇴	-11.1265
▁살려줘	-11.1265
▁응팔	-11.1265
▁영토	-11.1265
▁불안합니다	-11.1266
▁경찰청장	-11.1266
▁아가씨	-11.1266
▁새삼	-11.1266
▁대지진	-11.1266
▁시원찮을	-11.1266
▁미쳤어	-11.1266
▁실화냐	-11.1266
▁피의자	-11.1266
▁어떤식으로	-11.1266
▁돈벌기	-11.1266
ᆞᆞ	-11.1266
▁족발	-11.1267
▁이재명	-11.1267
▁동참	-11.1267
▁실천	-11.1267
▁국산	-11.1267
▁걱정되네	-11.1267
▁알았음	-11.1267
식품	-11.1267
▁해야하죠	-11.1268
▁뻔히	-11.1268
유지현	-11.1268
▁메이저리그	-11.1268
▁메달	-11.1268
다양한	-11.1268
▁비웃	-11.1269
▁콜라	-11.1269
▁담화	-11.1269
▁빨갱이들	-11.127
▁호우	-11.127
▁있겠죠	-11.127
▁몇개	-11.127
▁멋있음	-11.1271
▁부역자	-11.1271
▁들어왔는데	-11.1271
▁영향력	-11.1271
▁걱정된다	-11.1271
▁화난다	-11.1272
▁정신차려라	-11.1272
▁바쁜데	-11.1272
만원씩	-11.1272
▁고칠	-11.1272
▁애국심	-11.1272
▁걱정됨	-11.1273
▁궁금한게	-11.1273
▁이유식	-11.1274
▁체질	-11.1274
▁많습니다	-11.1275
▁처단	-11.1275
▁암살	-11.1275
▁건드리	-11.1275
▁미쳤네	-11.1275
▁주행	-11.1276
▁됐어요	-11.1276
▁널리	-11.1277
▁한편으로	-11.1277
▁하필	-11.1277
▁반성해라	-11.1277
▁열등	-11.1278
▁약정	-11.1278
▁입어야	-11.1278
▁로비	-11.1279
▁괜찮은데	-11.1279
▁문제점	-11.128
▁젊	-11.128
▁에이스	-11.128
▁싶지만	-11.128
▁욕할	-11.128
▁치욕	-11.1281
▁오늘따라	-11.1281
▁베스트	-11.1281
▁서든	-11.1281
▁결심	-11.1282
▁도라이	-11.1282
▁있죠	-11.1282
▁메리	-11.1283
▁다행이네요	-11.1283
▁체력	-11.1283
▁수치	-11.1283
▁데려가라	-11.1283
▁지갑	-11.1284
▁알바생	-11.1284
▁알았지만	-11.1285
▁광대	-11.1285
자주	-11.1285
▁있겠네요	-11.1285
오래오래	-11.1285
▁많구나	-11.1286
▁처음에는	-11.1286
▁이해할	-11.1287
▁만남	-11.1287
▁나왔어요	-11.1287
▁건강하시고	-11.1287
불능	-11.1287
▁큰일이다	-11.1288
▁내가보기	-11.1288
▁화가나서	-11.1288
▁만났	-11.1289
▁좋던데	-11.1289
▁뜨거워	-11.1291
▁웹	-11.1292
종목	-11.1292
▁열받게	-11.1292
▁잼나	-11.1292
▁싸이코	-11.1292
▁정치권	-11.1293
만원정도	-11.1293
사상	-11.1293
▁살만	-11.1293
▁쌔	-11.1294
▁루리웹	-11.1294
▁메르스	-11.1294
▁받으셨	-11.1294
▁부들부들	-11.1294
▁쏜	-11.1294
▁정윤회	-11.1294
▁포그바	-11.1294
▁사악한	-11.1294
▁철면피	-11.1294
▁선풍기	-11.1294
▁김제동	-11.1294
▁왜교부	-11.1294
▁DNA	-11.1294
▁kbs	-11.1294
▁신의한수	-11.1294
▁하야하라	-11.1294
▁맘고생	-11.1294
▁엄정화	-11.1294
▁외노자	-11.1294
▁생중계	-11.1294
낼수	-11.1294
▁김영재	-11.1294
▁강동원	-11.1294
▁잔뜩	-11.1294
▁다양하	-11.1295
▁짜증난다	-11.1295
▁오간도	-11.1295
▁종신형	-11.1295
▁맞는건가요	-11.1295
하시오	-11.1295
▁곰신	-11.1296
▁있겠다	-11.1296
▁조사해라	-11.1296
▁유망주	-11.1296
▁방어	-11.1296
▁기침	-11.1296
▁도배	-11.1296
관절	-11.1296
▁국방부	-11.1297
▁야구선수	-11.1297
▁미사일	-11.1297
▁좋아해요	-11.1298
▁못자고	-11.1298
업계	-11.1298
▁해체하라	-11.1298
지않나	-11.1298
▁임대	-11.1299
▁올까요	-11.1299
▁우상	-11.1299
▁죽겠어요	-11.1299
손손	-11.1299
▁오타	-11.1299
▁치안	-11.13
▁않습니다	-11.13
▁남미	-11.13
▁무섭기도	-11.13
▁실물	-11.1301
▁절실	-11.1301
▁드리고	-11.1301
▁정식	-11.1302
▁힘든거	-11.1302
▁어리석은	-11.1302
▁이런거보면	-11.1302
▁허구	-11.1302
▁지원금	-11.1303
▁넣어라	-11.1304
▁왜그래	-11.1304
내일	-11.1305
▁다음달	-11.1306
▁나을듯	-11.1306
▁멋지네	-11.1307
뚫고	-11.1308
▁열받는다	-11.1308
▁인원	-11.1308
▁쏘	-11.1309
▁수조원	-11.1309
▁생겼어요	-11.1309
인거같다	-11.131
▁어쩌나	-11.131
▁한강	-11.1312
▁불쌍해서	-11.1313
▁멀쩡한	-11.1313
▁속국	-11.1314
▁몰입도	-11.1314
하십니까	-11.1314
▁끌	-11.1316
▁전공	-11.1316
▁제사	-11.1316
▁고개	-11.1317
▁이상한데	-11.1318
박스	-11.1318
▁많나요	-11.1318
▁처벌해라	-11.132
▁;	-11.132
▁좋았다	-11.132
▁자원	-11.1321
▁돈주고	-11.1322
▁근혜야	-11.1322
▁독감	-11.1323
자신	-11.1323
▁보이네요	-11.1324
▁핵심	-11.1324
▁확실한건	-11.1325
▁최대한	-11.1325
▁이유로	-11.1326
▁몇십억	-11.1326
▁어렵네요	-11.1326
▁아무데	-11.1326
▁한놈	-11.1326
▁여배우	-11.1327
것같음	-11.1328
가는거	-11.1329
▁있기는	-11.1329
▁쩔어	-11.1332
▁랩	-11.1332
▁근본	-11.1332
▁지문	-11.1333
것같아서	-11.1333
▁언급	-11.1334
▁만드는데	-11.1334
▁줄여야	-11.1336
▁할말을	-11.1336
▁변함	-11.1337
▁법적으로	-11.1337
오브	-11.1337
▁몰살	-11.1337
▁놀라서	-11.1338
▁-_-	-11.1338
▁나물	-11.134
▁끌어내리	-11.134
▁복수	-11.1341
▁제조	-11.1341
▁죽이네	-11.1341
▁관상이	-11.1342
▁못사는	-11.1342
▁아름답다	-11.1342
▁뒤늦	-11.1343
▁남친이랑	-11.1345
▁걱정되고	-11.1348
하심	-11.1348
▁몰랐네	-11.1348
▁의지가	-11.1349
▁일하면서	-11.1349
▁짤라	-11.1351
▁배신	-11.1351
▁맞으면	-11.1351
씨가	-11.1353
▁친척	-11.1353
▁발상	-11.1353
▁추위	-11.1354
▁멋져요	-11.1355
▁샀는데	-11.1355
▁퉤	-11.1355
▁며느리	-11.1355
▁꼽	-11.1355
▁대다나다	-11.1355
▁삼시세끼	-11.1355
▁잠수함	-11.1355
▁pc	-11.1355
▁sk	-11.1355
▁칼럼	-11.1356
▁메인에	-11.1356
▁불구속	-11.1356
▁이시영	-11.1356
▁사무실	-11.1357
▁밥먹고	-11.1357
▁규모	-11.1358
▁심각	-11.1358
▁입맛	-11.1358
▁당연하지	-11.1358
고나서	-11.1358
▁멸해야	-11.1358
▁이빨	-11.1361
▁씌우	-11.1361
가보네	-11.1361
▁좋냐	-11.1362
▁끔찍한	-11.1363
▁위반	-11.1363
▁넘길	-11.1363
▁팬티	-11.1363
▁못하겠어요	-11.1363
▁집안일	-11.1364
▁최고입니다	-11.1364
▁살인마	-11.1364
▁헬기	-11.1365
▁멀어	-11.1365
주지	-11.1365
▁궁금합니다	-11.1366
▁가능할까요	-11.1366
께요	-11.1366
▁마음씨	-11.1367
▁우리형	-11.1368
▁생각함	-11.1369
▁불행	-11.137
▁출전	-11.1371
랬는데	-11.1372
▁허위	-11.1372
▁좋아해	-11.1373
▁학생이	-11.1373
▁까이	-11.1374
▁어느나라	-11.1374
놓은	-11.1374
▁뻔뻔함	-11.1375
▁생선	-11.1375
▁해야되나요	-11.1376
▁아재	-11.1376
있다는	-11.1377
▁안오고	-11.1377
▁가입한	-11.1378
것에	-11.1379
▁오오	-11.1379
하는데요	-11.138
▁문과	-11.1382
▁저희집	-11.1383
▁시절	-11.1383
▁문제임	-11.1384
▁어디감	-11.1384
▁설계	-11.1386
▁당해서	-11.1387
▁작아	-11.1387
▁돈있는	-11.1387
▁개고기	-11.1387
걸린	-11.1388
▁화학	-11.1389
▁간단한	-11.1392
세력들	-11.1393
▁사이에서	-11.1393
▁멀리	-11.1393
▁보던	-11.1393
▁판치	-11.1394
▁유출	-11.1395
▁했거든요	-11.1396
▁안하나요	-11.1397
난리	-11.1397
▁쓰레기들아	-11.1398
라는걸	-11.1399
▁인양	-11.1399
야되는데	-11.14
▁있어야지	-11.1401
▁권력의	-11.1401
▁던져	-11.1402
▁멋있어요	-11.1402
▁대대	-11.1402
▁전생	-11.1405
▁범인	-11.1405
모르겟어요	-11.1406
년인데	-11.1406
▁하더라고요	-11.1407
▁들을	-11.1408
▁작가님	-11.1408
▁참나	-11.141
▁동일	-11.1411
나발이	-11.1411
▁데려오	-11.1411
▁미치지	-11.1411
▁악마다	-11.1413
▁야식	-11.1413
▁빌어	-11.1413
▁지친다	-11.1414
▁살인죄	-11.1414
▁이런가요	-11.1414
▁육	-11.1415
▁봤음	-11.1415
▁빠르네	-11.1415
▁할꺼	-11.1415
▁너에게	-11.1417
▁W	-11.1418
▁엔진	-11.1418
▁펑	-11.1419
▁어이없네	-11.1419
▁쫄	-11.1419
걸음	-11.142
▁블루	-11.142
▁구역질	-11.1421
▁시리즈	-11.1421
▁살림	-11.1422
▁뻐	-11.1422
▁잃고	-11.1422
▁걔가	-11.1423
년안	-11.1423
▁방수	-11.1423
▁국민성	-11.1423
▁맛은	-11.1425
▁말들	-11.1426
▁문학	-11.1426
▁해경	-11.1428
▁편지를	-11.143
▁직장에서	-11.143
▁함정	-11.143
▁귀신같	-11.143
안된다	-11.1432
▁부른	-11.1433
▁배워라	-11.1436
▁행님	-11.1436
▁사주	-11.1437
▁예디	-11.1438
▁회장님	-11.1438
▁남았네	-11.144
▁실력으로	-11.144
▁근육이	-11.1444
▁쉽지않	-11.1445
▁사실이다	-11.1448
▁좋겠	-11.1448
▁죽겠	-11.1449
▁받았다	-11.145
▁터지고	-11.1452
▁ᅮᅮᅮᅮᅮ	-11.1453
▁딸이	-11.1455
▁느껴지는	-11.1457
▁연봉이	-11.146
▁알아라	-11.146
▁살인자	-11.1462
▁다니고	-11.1462
▁요리법	-11.1463
▁필요한건	-11.1463
▁맞아요	-11.1464
▁쉬워	-11.1465
▁되는건가	-11.1467
교대	-11.1467
▁영구	-11.1467
▁한파	-11.1468
▁걸려서	-11.1469
▁한치	-11.1469
▁탄핵이	-11.1469
봤네요	-11.147
▁여기도	-11.1471
▁안가고	-11.1472
▁애정	-11.1476
▁말하는게	-11.1478
▁숨은	-11.1479
아는	-11.1479
▁진로	-11.1482
▁여자라	-11.1483
▁쯔	-11.1483
▁라디오	-11.1483
▁공화국	-11.1483
▁쩝	-11.1483
▁듭니다	-11.1483
▁도시락	-11.1484
인가여	-11.1485
▁모름	-11.1486
▁방에	-11.1487
▁필요없	-11.1489
▁죽어서	-11.149
▁자료	-11.149
▁느끼	-11.1491
세무	-11.1492
▁다음주에	-11.1492
▁부역자들	-11.1493
님의	-11.1497
▁ᄉᄁ들	-11.1497
▁치면	-11.1498
오늘은	-11.1499
▁분석	-11.1499
▁욕심이	-11.15
▁허용	-11.1501
만의	-11.1501
▁사유	-11.1503
▁조절	-11.1503
▁벌어지	-11.1508
복지	-11.1508
▁1%	-11.151
▁회장	-11.1511
꺼다	-11.1513
▁하나여	-11.1513
▁하던가	-11.1516
고사	-11.1516
▁필요없다	-11.1516
해서요	-11.1517
▁매장	-11.1519
했지요	-11.1521
▁망해가는	-11.1521
▁살다가	-11.1522
▁바꾸고	-11.1523
▁잘가라	-11.1523
욤	-11.1523
▁붙어있	-11.1524
배는	-11.1527
▁밑으로	-11.1528
쪄서	-11.1528
▁기사라고	-11.1529
▁음주운전은	-11.1532
▁새롭	-11.1533
▁무상	-11.1533
▁겁나네요	-11.1533
▁그러게	-11.1535
▁대통령의	-11.1536
▁그만하고	-11.1536
▁동상	-11.1537
▁웃긴다	-11.1539
▁제생각	-11.1541
▁하구요	-11.1541
현대	-11.1542
▁5%	-11.1543
▁묵	-11.1547
▁똥이	-11.1547
▁노력이	-11.1547
▁다른팀	-11.1548
▁ᅩ	-11.1548
▁마인드	-11.1548
정환	-11.1548
▁며칠전	-11.155
▁살아서	-11.155
▁닥치고	-11.155
▁쓰냐	-11.155
▁쳤	-11.155
▁만한	-11.1551
▁간편	-11.1552
▁마지막으로	-11.1552
▁내게	-11.1554
하겠냐	-11.1555
▁기사네요	-11.1557
어가	-11.1558
▁없애라	-11.156
놔서	-11.1561
없는거	-11.1561
▁보내면	-11.1562
싫어합니다	-11.1562
▁합니까	-11.1563
▁아까워	-11.1564
▁참으면	-11.1565
▁있는듯	-11.1565
▁심해서	-11.1567
▁새끼들아	-11.1567
기회	-11.1569
▁행정	-11.157
▁뽑고	-11.157
▁내생각	-11.157
▁익	-11.1571
▁처음부터	-11.1571
▁관계가	-11.1572
▁책상에	-11.1574
▁뽑았	-11.1576
▁떨리	-11.1576
어여	-11.1576
▁잡지	-11.1576
▁밝혀야	-11.1577
▁되는구나	-11.1578
이여	-11.1578
▁연인	-11.1578
▁잔치	-11.1579
▁능	-11.1579
▁시작한	-11.1579
▁왠만한	-11.158
▁천둥	-11.1581
▁디지	-11.1584
치우고	-11.1588
▁못하지	-11.1589
▁보험	-11.159
▁뭐여	-11.159
▁모자라	-11.1595
그게	-11.1595
▁씨를	-11.1597
있었어	-11.1597
▁집앞	-11.1598
대갈	-11.1599
권이	-11.16
▁이야기를	-11.1602
▁덕분	-11.1605
▁아니네요	-11.1606
▁o	-11.1606
억인데	-11.1608
▁보이네	-11.161
▁탁	-11.161
▁맞게	-11.161
▁미련이	-11.1611
▁컨	-11.1613
리스	-11.1613
▁샘	-11.1613
▁천만원	-11.1614
▁시비	-11.1615
방향으로	-11.1616
▁사스	-11.162
▁아까운	-11.1621
▁죽어야	-11.1621
▁욕만	-11.1621
▁좋아했	-11.1622
▁변하	-11.1624
▁버리지	-11.1625
요구	-11.1629
▁아니니	-11.1629
▁결혼하고	-11.1633
▁남자분들	-11.1634
▁시작하는	-11.1635
쓰지말고	-11.1636
▁기사다	-11.1637
▁너네가	-11.1637
하는듯	-11.1637
살리	-11.1638
에만	-11.1639
개나	-11.1641
▁탄핵하라	-11.1642
▁꿈을	-11.1643
▁하는건가요	-11.1643
▁지나고	-11.1645
▁떨려	-11.1647
▁따로없네	-11.1647
먹으러	-11.1648
▁했을까	-11.1651
▁됐나	-11.1651
▁차인	-11.1651
▁답없	-11.1652
▁하려는	-11.1655
▁피디	-11.1655
거리는	-11.1656
▁드는데	-11.1657
기사가	-11.1661
▁부산에	-11.1664
▁ᄎ	-11.1669
▁팬인데	-11.1672
하고있는데	-11.1675
기다리던	-11.1677
▁선물을	-11.1678
인지라	-11.1679
▁어머니들	-11.1679
▁연애를	-11.1683
▁당하는	-11.1683
▁폭	-11.1684
하다보면	-11.1685
▁조져	-11.1685
▁고쳐	-11.1687
체험	-11.1688
▁물에	-11.1689
대장	-11.169
▁사람이냐	-11.1696
▁있으면서	-11.1697
▁말입니다	-11.17
▁것입니다	-11.1703
▁꼴통들	-11.1705
▁썩어빠	-11.1705
▁만화	-11.1706
▁나간다	-11.1707
하기전에	-11.1708
▁압도적	-11.1711
▁조건	-11.1716
▁범죄자가	-11.1717
▁색히들	-11.1724
기분	-11.1727
▁군대에서	-11.1728
▁냉정하	-11.1731
▁이러나	-11.1737
▁ᅲᅲᅲᅲᅲᅲᅲ	-11.1737
법으로	-11.1738
▁안하는데	-11.1743
▁보니깐	-11.1743
▁잘함	-11.1743
▁찐	-11.1744
▁우울	-11.1745
▁지원을	-11.1746
▁저승	-11.1747
▁말라고	-11.1751
▁헬조선에서	-11.1752
▁가격은	-11.1757
▁나이에	-11.1758
대만	-11.1758
생겼다	-11.1759
▁컸	-11.1759
애는	-11.1764
적이고	-11.1766
▁나가는	-11.1769
▁좀먹	-11.1771
▁비박이	-11.1771
주년	-11.1774
▁보이고	-11.1776
▁힘내시	-11.1776
더니만	-11.1781
ᅮᅲᅲ	-11.1781
▁열받	-11.1783
▁동물이	-11.1783
것이지	-11.1785
미친	-11.1785
▁같은데요	-11.1785
국어	-11.1788
▁착	-11.179
주냐	-11.1793
▁들어가면	-11.1793
▁거기다	-11.1793
기억	-11.1796
시켜야지	-11.1797
▁헌	-11.1798
▁없애야	-11.18
▁주방	-11.18
보고싶어서	-11.1801
것같네요	-11.1803
한곳	-11.1805
▁첫번째	-11.1806
버리	-11.1807
뿐이고	-11.1808
▁실력이	-11.1819
▁위험해	-11.1821
프로가	-11.1821
더라면	-11.1823
▁대가리에	-11.1823
▁끝났다	-11.1824
양심	-11.1824
▁나쁜놈들	-11.1826
번은	-11.1826
▁먹칠	-11.1827
금지	-11.1835
▁힘들겠지	-11.1835
▁나가고	-11.1837
팀에	-11.1842
사람도	-11.1843
줄은	-11.1845
와의	-11.1847
▁받아주는	-11.1848
▁바뀌	-11.1849
▁안심	-11.1851
▁하루를	-11.1852
본거	-11.1852
집도	-11.1854
파이	-11.1857
▁인정하	-11.186
▁돈이면	-11.1865
멋있	-11.1865
▁하시길	-11.1874
익	-11.1876
▁처해야	-11.1876
신거	-11.1881
▁죽이는	-11.1881
▁자르	-11.1881
▁능력없	-11.1882
▁저분들	-11.1884
▁상황에서	-11.1885
▁나올때	-11.189
ᅲᅲᅲᅲᅲᅲᅲᅲᅲ	-11.189
품이	-11.1894
사회	-11.1895
▁비주얼	-11.1895
▁무덤	-11.1897
▁망가	-11.1899
▁주차	-11.19
▁심하	-11.1902
▁바뀌었	-11.1906
오나요	-11.1908
▁한해	-11.1913
묘	-11.1914
▁일인데	-11.1914
한거네	-11.1914
▁몸은	-11.1914
▁제대하고	-11.1918
▁닭의	-11.1918
▁나오시	-11.1918
▁회사에서	-11.1922
▁타지	-11.1934
▁유지하	-11.1934
되니까	-11.1935
▁뮤	-11.1937
랭	-11.1937
야될지	-11.1938
장치	-11.1939
▁돕	-11.1939
▁엄청날	-11.194
▁순간에	-11.1941
▁ᅮᅲ	-11.1943
▁망치고	-11.1943
으라고	-11.1945
쟁이	-11.1945
▁페	-11.1946
변이	-11.1946
▁것과	-11.1953
▁채우	-11.1954
▁중독	-11.1954
높아서	-11.1958
▁속상해	-11.1958
▁따위	-11.1959
▁처벌받	-11.196
▁야구장	-11.1962
▁일정	-11.1963
바람	-11.1965
찍고	-11.1967
▁생기는	-11.197
▁몇명이	-11.1971
▁보여서	-11.1973
는걸로	-11.1974
▁대통령이나	-11.1974
▁뛰면	-11.1977
▁이런것	-11.1982
탱	-11.1985
▁증상	-11.1986
▁비는	-11.1989
▁해야할	-11.199
▁털리	-11.199
!!!!!!!!!!!!!	-11.1992
대면	-11.1993
▁헤어질	-11.1996
▁남주	-11.1998
리는거	-11.1999
년대	-11.2008
▁이루	-11.2008
▁중국인들	-11.2009
명을	-11.201
▁모르는거	-11.2014
▁지현	-11.2015
기간이	-11.2018
하나하나	-11.2021
있을때	-11.2022
푸	-11.2029
▁언론은	-11.203
▁공기	-11.203
▁야구는	-11.2031
▁목적	-11.2034
히고	-11.2034
▁똥을	-11.2036
▁무시	-11.2038
▁어떤게	-11.2038
▁있을때	-11.2039
하지마세요	-11.2041
▁잡았	-11.2043
목이	-11.2047
▁인연이	-11.2048
▁사귀는	-11.2049
▁먹여	-11.2049
가튼	-11.2054
버림	-11.2058
꿈	-11.206
코드	-11.2066
가봐	-11.207
을때는	-11.2071
체를	-11.2071
야할	-11.2075
▁폐지해	-11.2077
▁졸리	-11.2083
▁노무현때	-11.209
▁보안	-11.2097
▁추가요	-11.21
▁달려드는	-11.2109
하겠어	-11.2116
까지는	-11.2117
▁끼고	-11.2118
▁정권이	-11.2119
첩	-11.2122
▁사회에	-11.2123
바닥에	-11.213
비하면	-11.2134
▁공범	-11.2134
~~♡	-11.214
▁손님들	-11.2144
부분은	-11.2146
▁오빠의	-11.2149
팔려서	-11.2156
본듯	-11.2159
ᄏᄏᄏᄏᄏᄏᄏᄏᄏᄏᄏᄏᄏᄏ	-11.2164
팀이	-11.2164
▁쉬어	-11.2166
▁저장	-11.2167
▁세월호에	-11.2169
주에	-11.217
라더니	-11.2174
았어요	-11.2177
▁가는거	-11.218
▁만들어야	-11.218
▁수시	-11.2182
▁누르	-11.219
▁박그네가	-11.2191
▁올것	-11.2192
▁경제적	-11.2193
▁네가	-11.2194
▁보구	-11.2196
보이고	-11.2198
트리	-11.2203
...^^	-11.2203
▁댓글다는	-11.2206
▁거죠	-11.2207
현아	-11.2214
긴다	-11.2217
▁전면	-11.2219
▁조심해야	-11.2219
였지만	-11.2222
줄알았	-11.2225
호가	-11.2227
▁만져	-11.2227
▁우롱하	-11.2229
▁방송에	-11.223
▁경찰들	-11.2234
▁높아	-11.2234
▁닫	-11.2235
▁무엇인가	-11.2238
▁세븐틴이	-11.2243
소리가	-11.2245
▁귀신	-11.2249
해야하는	-11.225
할께요	-11.2252
▁찍는	-11.2255
갔으면	-11.2258
▁190	-11.2258
▁팔아먹는	-11.2258
단지	-11.2261
▁답다	-11.2262
나오나요	-11.2265
감독님	-11.2271
▁지어	-11.2275
▁몰고	-11.2279
▁전쟁이	-11.2281
친거	-11.2283
▁부결	-11.2284
▁모양	-11.2285
▁판에	-11.2287
니가	-11.2289
▁못잡	-11.2289
▁박사	-11.2293
▁안좋	-11.2294
하시느라	-11.2295
▁헤어져	-11.2305
▁내야	-11.2306
정리	-11.231
▁닮았	-11.2312
▁가리	-11.2314
▁옹호	-11.2315
하시는분들	-11.2315
볼라고	-11.2316
▁대표적	-11.2319
▁정신적	-11.2326
▁성격이	-11.2328
▁설명해	-11.233
▁노인네들	-11.2331
현상	-11.2334
▁한달도	-11.2337
▁날라	-11.2342
▁뽑아야	-11.2344
▁한건	-11.2348
사진이	-11.2349
발로	-11.2355
▁그알	-11.2358
실에	-11.2359
저건	-11.236
▁할건	-11.2362
해야할	-11.2362
하루라도	-11.2364
사원	-11.2365
꺼라	-11.2365
▁유재석이	-11.2368
▁사형이	-11.2369
▁신분	-11.2371
올까봐	-11.2372
그녀	-11.2372
질이냐	-11.2375
치네	-11.2376
▁+	-11.2382
분이시네	-11.2382
엇다	-11.2383
▁사진에	-11.2383
아니네	-11.2386
▁선택이	-11.2388
빠진	-11.2389
▁쓰래기	-11.2391
▁노동	-11.2393
탱이	-11.2394
모양	-11.2397
▁하라는	-11.2397
▁더불어	-11.2397
▁읽	-11.2402
하는거지	-11.2405
▁방치	-11.2416
▁날개	-11.2418
▁아들이	-11.2419
을것이다	-11.2422
ᅲᅲᅲᅲᅲᅲᅲᅲᅲᅲᅲᅲᅲᅲ	-11.2423
▁부모님이	-11.2426
한대	-11.243
해야할까요	-11.2431
권을	-11.2433
▁갖	-11.2435
▁넣었	-11.2439
▁갔다와	-11.2439
되네	-11.2443
키면	-11.2452
뿐이	-11.2452
▁한글	-11.2452
▁흔들리	-11.2453
않냐	-11.2454
▁노래는	-11.2462
해야해	-11.2463
나라다	-11.2464
이구먼	-11.2468
들어갔	-11.2473
▁말이다	-11.2473
군대	-11.2474
들이랑	-11.2476
▁찬양	-11.2477
▁후손	-11.2481
▁준비해야	-11.2481
▁한달정도	-11.2482
채우고	-11.2485
야하는지	-11.2486
▁구속해야	-11.249
부부	-11.2505
▁안남	-11.2516
▁잘안	-11.2527
▁차이나	-11.253
▁해달라	-11.253
했었	-11.2532
우승	-11.2537
▁시키들	-11.2542
에다가	-11.2542
▁탈출하	-11.2544
▁안전한	-11.2545
활	-11.2548
▁우짜	-11.2549
가는구나	-11.2549
▁강팀	-11.2549
▁힐링	-11.2551
?;;	-11.2551
친구가	-11.2559
새키	-11.2559
르르	-11.2563
있지만	-11.2564
▁경기가	-11.2564
억에	-11.2565
는거에요	-11.2569
▁무사	-11.2571
는뎅	-11.2572
변화가	-11.2573
저래	-11.2574
▁생각나는	-11.2574
▁고맙구	-11.2578
을까봐	-11.258
▁모델	-11.258
났네	-11.2585
리들	-11.2587
▁거기가	-11.2588
▁다름	-11.2588
주간	-11.2591
▁돕는	-11.2595
ᅮᅮᅮᅮᅮᅮᅮᅮ	-11.2597
▁시바	-11.2612
▁파도	-11.2616
▁할말	-11.2621
▁당해봐	-11.2621
▁부르는	-11.2623
위성	-11.2624
▁메갈이	-11.2625
나가서	-11.2626
실수로	-11.2627
▁틀렸	-11.2628
려고하는데	-11.2629
선동	-11.263
▁도입	-11.2631
o	-11.2632
한것이	-11.2634
분인데	-11.2634
▁일에	-11.2636
성은	-11.2639
됐음	-11.2639
▁시달리	-11.2642
▁다녀야	-11.2643
수비	-11.2645
▁할거	-11.2648
저런	-11.2649
버릴	-11.2658
▁콜	-11.2658
▁지금보다	-11.2659
▁여자의	-11.2659
스럽네요	-11.2661
▁웃을	-11.2661
드네	-11.267
있던거	-11.2672
병이	-11.2673
ᅲᅲᅲᅲᅲᅲᅲᅲᅲᅲᅲ	-11.2676
는거네	-11.268
▁뿌려	-11.2681
하믄	-11.2683
f	-11.2683
됐네	-11.2691
▁세계적	-11.2693
먹어야지	-11.2694
▁끝난	-11.2696
▁날씨에	-11.2696
세력	-11.2699
▁저런것	-11.2703
▁힘내	-11.2703
자라	-11.2706
전까지	-11.2707
▁구글이	-11.2709
것네	-11.2711
못해서	-11.2713
뛰고	-11.2716
▁들어왔	-11.2719
▁생길까	-11.2723
▁반기문이	-11.2731
싫	-11.2731
갑다	-11.2736
십년	-11.2738
▁헤어지고나	-11.2739
▁계신	-11.2742
겠습니까	-11.2742
▁연애중	-11.2745
댓	-11.2745
▁중요하	-11.2746
맞추	-11.275
▁안가네	-11.2751
국민들을	-11.2752
이자식	-11.2762
여자친구가	-11.2762
▁미안하지	-11.2763
▁진단	-11.2763
산업	-11.2765
▁들어간	-11.2767
틈	-11.2773
쓰는데	-11.2773
묻	-11.2774
▁권력에	-11.2774
빡	-11.2775
▁대학생	-11.2775
▁흔들	-11.2778
▁나빠	-11.2778
▁놓치	-11.2779
랑은	-11.278
▁숨기	-11.278
쉰	-11.2782
▁플레이	-11.2784
같은걸	-11.2784
쩔	-11.2784
▁창피해	-11.2788
자리가	-11.2789
▁잡혀	-11.2792
▁이때	-11.2793
▁드러	-11.2796
나보다	-11.2798
날씨	-11.2798
울때	-11.2799
좋아서	-11.2801
갔더니	-11.2804
▁명단	-11.2807
▁터지는	-11.2807
▁시작되	-11.2809
▁존재하는	-11.2811
▁좋아하고	-11.2814
▁범	-11.2815
노예	-11.2816
▁드립	-11.2819
▁아깝	-11.282
드립니다	-11.2828
▁~~~~	-11.2828
드립	-11.2831
▁그래요	-11.2832
▁수명	-11.2834
부르	-11.2836
저리	-11.2838
못한다	-11.284
먹어	-11.284
도되고	-11.284
신데	-11.2842
▁지적	-11.2844
▁돌아다니	-11.2847
미래	-11.2847
순실	-11.2852
구는	-11.2852
▁좋으시	-11.2856
▁시위하는	-11.2857
엘지	-11.2858
자격	-11.286
▁마감	-11.286
일로	-11.2862
▁많은거	-11.2865
조합	-11.2866
포켓몬	-11.287
흐	-11.2871
묵	-11.2871
압	-11.2871
플레이	-11.2876
핑	-11.2877
하십니다	-11.2877
▁못만나	-11.2878
시스템	-11.288
▁이민자	-11.2881
자금	-11.2881
많음	-11.2882
김밥	-11.2882
▁인지	-11.2882
밟	-11.2882
근무	-11.2883
C	-11.2883
셋	-11.2883
비싸	-11.2887
대체	-11.2888
할수있다	-11.2888
붓	-11.2888
므	-11.2889
▁뽑을	-11.2889
화된	-11.2889
ᅮᅮᅮᅮᅮ	-11.2892
빛	-11.2896
그림	-11.2897
▁티비에	-11.2897
요즘들어	-11.2898
기자님	-11.2899
뜯	-11.2901
▁내일도	-11.2903
▁막말	-11.2903
뜸	-11.2904
겠음	-11.2904
▁우기	-11.2904
파는	-11.2905
답네	-11.2905
같으니	-11.2906
냉	-11.2906
하셨어요	-11.2907
푼	-11.2907
쏘	-11.2908
판단	-11.2909
▁보고싶	-11.291
호텔	-11.2911
탑	-11.2914
쌀	-11.2915
▁뺀	-11.2915
▁저럴	-11.2915
ᅩ	-11.2915
M	-11.2916
마인드	-11.2916
공무원	-11.2916
▁법의	-11.2916
공연	-11.2917
대단해	-11.2917
엑스	-11.2917
꼬박	-11.2917
이쁘네	-11.2918
응원	-11.2918
g	-11.2919
▁있었던	-11.2919
쳐라	-11.2919
남자한테	-11.2919
경험	-11.2919
김대중	-11.292
▁한숨	-11.2921
펜	-11.2921
아시아	-11.2922
겸	-11.2922
▁이승	-11.2922
잊	-11.2922
테스트	-11.2923
와이프	-11.2924
합니까	-11.2924
▁제시	-11.2925
볼려고	-11.2928
파워	-11.2929
뇌	-11.293
리에	-11.293
염병하네	-11.293
어떡해	-11.2931
▁안보이네	-11.2931
행정	-11.2932
축제	-11.2932
연예인	-11.2932
▁대부분이	-11.2932
핵	-11.2932
헬	-11.2932
▁윗대가리들	-11.2932
V	-11.2933
상이	-11.2933
▁꼴통	-11.2933
졸업	-11.2933
굿	-11.2934
새벽	-11.2936
생이	-11.2936
들어오게	-11.2936
잘때	-11.2936
저녁	-11.2937
캬	-11.2937
잖	-11.2937
김성근	-11.2937
존재	-11.2938
그렇고	-11.2938
직업	-11.2938
또라이	-11.2939
재미있	-11.2939
도깨비	-11.294
헬조선	-11.294
오바마	-11.294
저를	-11.2942
축하드립니다	-11.2942
좌파	-11.2942
종교	-11.2943
애플	-11.2943
필요	-11.2943
계약	-11.2943
개월정도	-11.2944
할머니	-11.2945
응원합니다	-11.2945
알아서	-11.2946
개발	-11.2946
발표	-11.2948
▁져서	-11.2948
너무너무	-11.2949
제목	-11.2949
무서워서	-11.2949
▁다하는	-11.295
입장에서	-11.2951
K	-11.2952
알바들	-11.2952
친박	-11.2953
오래	-11.2953
▁현장	-11.2953
▁끝장	-11.2955
거고	-11.2956
생각이	-11.2956
ᅲᅲᅲᅲᅲᅲᅲᅲ	-11.2956
희망	-11.2956
▁하라	-11.2957
했어야지	-11.2957
하는건가요	-11.2958
악마	-11.2958
절대	-11.2958
인구	-11.2961
잔치	-11.2963
장관	-11.2964
패스	-11.2965
경력	-11.2965
▁랭킹	-11.2966
문자	-11.2971
팬인데	-11.2972
▁하지말	-11.2973
▁다른나라	-11.2973
조금	-11.2974
먹음	-11.2974
▁드시	-11.2975
어디서	-11.2975
이후로	-11.2976
답이다	-11.2977
행동	-11.2977
떠나	-11.2977
하거든요	-11.2977
철수	-11.2979
잘한다	-11.298
원하는	-11.2984
▁땅이	-11.2984
▁안봐	-11.2985
름이	-11.2986
▁알긴	-11.2988
▁이기적이	-11.2989
못하게	-11.299
입학	-11.2991
▁안시키	-11.2993
뒤로	-11.2996
님들은	-11.2996
24	-11.2996
군의	-11.2997
되어가	-11.2998
▁그랬어	-11.2999
▁잘하는거	-11.2999
뭐라	-11.3
스럽고	-11.3001
▁댓글알바	-11.3003
▁버린	-11.3003
▁혁신이	-11.3004
▁남이	-11.3005
애비	-11.3005
렉	-11.3006
▁멍청이	-11.3007
▁올랐	-11.3014
되었다는	-11.3014
▁좋으	-11.3014
▁쩔	-11.3015
▁스텝	-11.3019
사건이	-11.3019
▁직장인	-11.3021
이라던데	-11.3021
병원에	-11.3023
가슴이	-11.3024
예정	-11.3025
▁파리	-11.3025
나니까	-11.3026
햇어요	-11.3027
당하면	-11.3028
▁이명박	-11.3029
하에	-11.303
평가	-11.3031
나누	-11.3031
회장	-11.3034
날듯	-11.3036
순실이	-11.3038
키는	-11.3039
영상	-11.3039
였다면	-11.304
▁운명	-11.3045
사형	-11.3045
▁ᅲᅲᅲᅲᅲᅲᅲᅲᅲ	-11.3048
▁체중	-11.3051
부상	-11.3055
▁애국자	-11.3062
▁물러나	-11.3063
민족	-11.3065
증이	-11.3067
▁용기에	-11.3069
여라	-11.307
렸어요	-11.307
크네	-11.3071
▁국개의원	-11.3072
▁까면	-11.3073
해보자	-11.3078
???????????????	-11.308
집으로	-11.3082
만들	-11.3082
▁ᄒᄃᄃᄃ	-11.3083
스크	-11.3084
움직	-11.3086
바라	-11.3087
모르고	-11.309
선생님	-11.309
▁바꾸는	-11.3092
잡는	-11.3093
시켜서	-11.3097
광고	-11.3098
▁되긴	-11.3098
▁♡	-11.3102
▁유튜브	-11.3103
▁구속시켜	-11.3104
국민들은	-11.3107
▁일어난	-11.3107
▁거래	-11.3111
갈기	-11.3111
틀리	-11.3112
이익	-11.3114
▁이용해	-11.3115
▁못하나	-11.3115
▁쏟아	-11.3116
럽	-11.3117
▁할만	-11.3117
▁행위	-11.3119
▁놀랍	-11.3124
었어	-11.3125
▁45	-11.3125
고싶습니다	-11.3127
국민들이	-11.3127
릴듯	-11.3127
블로	-11.3129
정이	-11.313
발생	-11.3134
▁서인국	-11.3134
시상식	-11.3135
▁막내	-11.3137
▁공부할	-11.3138
▁날씨도	-11.3138
색히들	-11.3138
▁아랍	-11.3139
지사	-11.3139
나이가	-11.314
▁쓴다	-11.3141
▁기성용	-11.3142
고싶네요	-11.3142
승리	-11.3142
에라이	-11.3145
▁부러운	-11.3146
그러면	-11.3146
쓰네	-11.3146
행위	-11.3149
치냐	-11.3149
내려와	-11.315
인증	-11.315
른거	-11.315
▁좋은모습	-11.3151
▁재방	-11.3151
▁보일	-11.3151
▁괴물	-11.3152
▁류현진	-11.3153
▁정은이	-11.3153
차이나	-11.3155
의원들	-11.3155
대지	-11.3156
▁임창정	-11.3158
▁이틀	-11.3159
겄	-11.3161
▁단호	-11.3163
▁보수라	-11.3165
▁부러워	-11.3167
▁세월	-11.3169
▁어떡하	-11.317
찼	-11.3173
아기	-11.3174
▁시청	-11.3175
▁듣보잡	-11.3178
▁뭣	-11.3179
▁보검	-11.3179
▁똥싸	-11.318
두산	-11.3181
▁울었	-11.3181
네ᄏᄏᄏ	-11.3186
▁여기는	-11.3186
▁국회에	-11.3187
공장	-11.3189
생명	-11.319
▁언론사	-11.3191
70	-11.3192
▁씁쓸	-11.3193
뚫	-11.3196
우유	-11.3197
▁무겁	-11.3197
!~	-11.3198
▁백선생	-11.3198
▁뜰	-11.32
▁국방	-11.3201
▁해설	-11.3201
하지마	-11.3201
▁깜빡	-11.3201
▁복제	-11.3204
▁오픈	-11.3206
나오는데	-11.3207
▁테	-11.3212
나이에	-11.3212
▁못생긴	-11.3213
픈	-11.3214
▁특혜	-11.3215
▁체크	-11.3215
▁당시	-11.3217
대기업	-11.3217
▁존예	-11.3217
나옴	-11.3218
말은	-11.3219
▁웃기는	-11.3219
아야	-11.3219
▁엄벌	-11.3221
빠져	-11.3221
▁모임	-11.3222
룰	-11.3223
▁땡	-11.3223
▁허락	-11.3224
▁짤리	-11.3224
못하면	-11.3224
법이	-11.3226
▁멍청하	-11.3226
샀	-11.3228
템	-11.3229
뤄	-11.3229
▁똥꼬	-11.3229
너를	-11.323
바람이	-11.323
▁생각해보니	-11.3231
객	-11.3234
아오	-11.3235
▁어떨까	-11.3235
▁자랑스러워	-11.3236
할게요	-11.3236
센타	-11.3236
입어도	-11.3237
▁명장	-11.3237
획	-11.3237
▁옘병	-11.3237
▁알겠네	-11.3238
뢰	-11.3238
▁조합	-11.324
▁찢	-11.3241
늠들	-11.3241
▁됐네	-11.3243
져야	-11.3244
▁신입	-11.3245
될때	-11.3245
▁줄어들	-11.3246
▁오나	-11.3247
▁마이너	-11.3247
지맙시다	-11.3248
▁근거	-11.3249
인데도	-11.3249
▁미뤄	-11.325
폴	-11.325
▁감싸	-11.3251
텔	-11.3252
▁생각하	-11.3252
렬	-11.3252
▁폐쇄	-11.3253
▁있으니까	-11.3253
펌	-11.3253
딜	-11.3253
솟	-11.3253
▁환영	-11.3254
펀	-11.3254
깟	-11.3254
뻤	-11.3254
기도하고	-11.3254
▁안보는	-11.3254
▁바빠	-11.3254
틴	-11.3255
리그에서	-11.3255
뷰	-11.3255
큐	-11.3256
레스	-11.3257
▁그다음	-11.3257
쌤	-11.3257
넥	-11.3257
▁운행	-11.3257
▁체육	-11.3257
스러움	-11.3258
▁선언	-11.3258
쑥	-11.3258
뭇	-11.3258
껍	-11.3258
핸	-11.3258
샵	-11.3258
▁원톱	-11.3258
▁언젠간	-11.3258
웟	-11.3258
▁모쏠	-11.3258
▁불법조업	-11.3258
^*^	-11.3258
^-^	-11.3258
▁과태료	-11.3258
▁기어핏	-11.3258
▁냄비근성	-11.3258
▁네이마르	-11.3258
▁다스려야	-11.3258
▁닮음	-11.3258
▁대중교통	-11.3258
▁박ᄅ혜	-11.3258
▁버릇	-11.3258
▁부채질	-11.3258
▁비슷해	-11.3258
▁비즈니스	-11.3258
▁섹스	-11.3258
▁송창식	-11.3258
▁스모그	-11.3258
▁스카웃	-11.3258
▁스킨쉽	-11.3258
▁시진핑	-11.3258
▁싶냐	-11.3258
▁싶습니다	-11.3258
▁아니랄까봐	-11.3258
▁어울린다	-11.3258
▁예체능	-11.3258
▁오토바이	-11.3258
▁올바른	-11.3258
▁이화여대	-11.3258
▁임산부	-11.3258
▁전무후무	-11.3258
▁전자발찌	-11.3258
▁주둥아리	-11.3258
▁챔피언	-11.3258
▁최저임금	-11.3258
▁콧물	-11.3258
▁펠라이니	-11.3258
▁한그릇	-11.3258
▁화염병	-11.3258
결사반대	-11.3258
냅시다	-11.3258
떄	-11.3258
붐	-11.3258
숑	-11.3258
썬	-11.3258
욥	-11.3258
힝	-11.3258
▁epl	-11.3258
▁경찰추산	-11.3258
▁국민혈세	-11.3258
▁넘사벽	-11.3258
▁로저스	-11.3258
▁리스펙	-11.3258
▁서문시장	-11.3258
▁스릴러	-11.3258
▁왼쪽	-11.3258
▁우체국	-11.3258
▁자주국방	-11.3258
▁죄책감	-11.3258
▁쭈욱	-11.3258
▁챔스	-11.3258
▁큐브	-11.3258
▁피켓	-11.3258
☆	-11.3258
됌	-11.3258
▁렌즈	-11.3258
▁막막합니다	-11.3258
▁박병호	-11.3258
▁인디언	-11.3258
▁잘봤습니다	-11.3258
▁장시호	-11.3258
▁카피캣	-11.3258
▁쿵쾅	-11.3258
▁홍채인식	-11.3258
▁객관	-11.3258
▁갱상도	-11.3258
▁신동엽	-11.3258
▁원피스	-11.3258
▁말장난	-11.3258
▁전소미	-11.3258
▁뽀로로	-11.3258
▁체지방	-11.3258
▁탄수화물	-11.3258
▁거꾸로	-11.3258
▁이순신	-11.3258
▁추신수	-11.3258
▁가라앉	-11.3258
▁조원우	-11.3258
▁블랙핑크	-11.3258
▁인하대	-11.3258
▁개호구	-11.3258
▁구설수	-11.3258
▁나뿐인가	-11.3258
▁사이코패스	-11.3258
▁감솨	-11.3258
▁블로그	-11.3258
▁뜬금포	-11.3258
▁별똥별	-11.3258
▁역겨워	-11.3258
▁멍멍	-11.3258
찍어	-11.3258
▁김상수	-11.3258
▁불체자	-11.3258
▁지구온난화	-11.3258
▁김영삼	-11.3258
▁유아인	-11.3258
▁페이커	-11.3258
▁고향이	-11.3259
귀요미	-11.3259
▁존멋	-11.3259
▁코레일	-11.3259
cm	-11.3259
립시다	-11.3259
▁뭉	-11.3259
▁육성재	-11.3259
▁방콕	-11.3259
▁최신폰	-11.3259
▁위엄	-11.3259
▁기생	-11.3259
▁알았어	-11.3259
▁뉴욕	-11.3259
▁찍혔	-11.3259
▁용의자	-11.3259
▁순실전자	-11.3259
▁SK	-11.3259
▁유인나	-11.3259
▁SM	-11.3259
▁맞벌이	-11.3259
▁이슬비	-11.3259
▁추잡	-11.3259
트럭	-11.3259
▁짝남	-11.3259
▁한심스럽다	-11.3259
▁느껴짐	-11.3259
▁혼혈	-11.3259
▁배부른	-11.3259
▁파란색	-11.3259
▁베플	-11.3259
▁무책임	-11.3259
소식	-11.3259
▁이라크	-11.3259
▁재활용	-11.3259
▁빨간색	-11.3259
▁철렁	-11.3259
▁놀랐습니다	-11.3259
▁수고하셨어요	-11.3259
▁떠날까봐	-11.3259
▁침착	-11.326
▁대한항공	-11.326
▁관람	-11.326
▁받아들여야	-11.326
▁유신시대	-11.326
▁허경영	-11.326
▁일장기	-11.326
▁멋졌어요	-11.326
퍼센트	-11.326
▁용빈	-11.326
▁베트남	-11.326
▁연설	-11.326
▁농락	-11.326
▁즉각	-11.326
▁자랑스러운	-11.326
▁습관	-11.326
▁회복	-11.326
▁에이즈	-11.326
▁고생하셨어요	-11.326
▁탈탈	-11.3261
▁돌대가리	-11.3261
▁존경스럽습니다	-11.3261
▁결코	-11.3261
▁빙신	-11.3261
▁출입	-11.3261
▁코끼리	-11.3261
▁두렵습니다	-11.3261
▁학업	-11.3261
▁헤어졌습니다	-11.3261
▁글쎄	-11.3261
▁황당하네요	-11.3261
▁미치겠습니다	-11.3261
▁자빠져	-11.3261
▁한국시리즈	-11.3261
쇼크	-11.3261
_^	-11.3261
__	-11.3261
▁개노잼	-11.3261
▁조합장	-11.3261
▁흑형	-11.3262
▁실검	-11.3262
▁호빠	-11.3262
▁간단히	-11.3262
▁오지환	-11.3262
▁걸그룹	-11.3262
▁퇴물	-11.3262
▁좋은정보	-11.3262
▁맛집	-11.3262
▁은지원	-11.3262
대중반	-11.3262
▁싸그리	-11.3262
플러스	-11.3262
▁몇몇	-11.3262
▁지동원	-11.3263
▁종종	-11.3263
▁가야되나	-11.3263
▁염치	-11.3263
▁왜냐면	-11.3263
▁자멸	-11.3263
▁기대됩니다	-11.3263
▁전율이	-11.3263
▁쓰레기통	-11.3263
▁아이콘	-11.3263
▁콜라보	-11.3263
▁전재산	-11.3263
▁늦었지만	-11.3263
▁미쳤구나	-11.3263
관광객	-11.3263
▁2014	-11.3264
▁목따	-11.3264
▁부품	-11.3264
▁김연경	-11.3264
▁관종	-11.3264
▁강추	-11.3264
▁지휘	-11.3264
▁그저께	-11.3265
▁빡세	-11.3265
▁배송	-11.3265
▁토나온다	-11.3265
▁악덕	-11.3265
▁흥민아	-11.3265
▁처벌하라	-11.3265
▁바쁘	-11.3265
▁선배님들	-11.3265
▁스포	-11.3265
▁아쉽네	-11.3265
▁안민석	-11.3266
▁힘들텐데	-11.3266
▁장거리	-11.3266
▁있겠네	-11.3266
▁상남자	-11.3266
▁현금	-11.3266
▁밀린	-11.3266
▁무척	-11.3266
▁수영장	-11.3266
▁단독	-11.3266
▁골프	-11.3267
▁차원이	-11.3267
▁짐작	-11.3267
▁살았으면	-11.3267
▁살찌	-11.3267
▁가정용	-11.3267
▁수상하다	-11.3267
▁통계	-11.3267
▁아름답습니다	-11.3267
▁고마해라	-11.3268
▁사라져라	-11.3268
▁국경	-11.3268
▁여러번	-11.3268
▁만점	-11.3268
▁모범	-11.3268
▁슈돌	-11.3269
▁남의나라	-11.3269
▁동북아	-11.3269
▁읽었는데	-11.3269
▁쓰고있는데	-11.3269
▁옮겨	-11.3269
▁나오더라구요	-11.3269
▁양쪽	-11.3269
▁하느님	-11.3269
▁전술	-11.3269
▁맞겠죠	-11.327
줬음	-11.327
▁호화	-11.327
▁무능력	-11.327
▁칠푼이	-11.327
▁겹쳐서	-11.3271
▁인종	-11.3271
▁뭐했냐	-11.3271
▁바보들아	-11.3271
▁솜방	-11.3271
▁보자마자	-11.3271
▁구미	-11.3272
▁좋을거	-11.3272
▁좋을듯	-11.3272
▁애교	-11.3272
▁불어라	-11.3272
▁들었어요	-11.3272
▁정확히	-11.3272
▁있겠냐	-11.3272
▁막힌다	-11.3272
▁배역	-11.3272
▁고생했어요	-11.3272
▁무섭습니다	-11.3272
라이트	-11.3272
▁이런경우	-11.3272
▁불안하네요	-11.3272
▁궁금하네요	-11.3272
▁우왕	-11.3272
▁사실이라면	-11.3273
▁일방적	-11.3273
감증	-11.3273
보컬	-11.3273
▁조류	-11.3273
했다면	-11.3273
▁요즘따라	-11.3273
▁해야되요	-11.3274
▁집권	-11.3274
▁꼴보기싫	-11.3274
▁자연분만	-11.3274
▁멋있었어요	-11.3274
▁받았으면	-11.3274
▁나아지	-11.3274
▁단연	-11.3274
대비	-11.3274
▁만들어주세요	-11.3274
대천왕	-11.3275
▁고령	-11.3275
▁양산	-11.3275
▁상체	-11.3275
▁물러나라	-11.3275
▁기관사	-11.3276
▁소식이네요	-11.3276
세상에	-11.3276
▁국격	-11.3276
▁가야하나요	-11.3277
▁자세히	-11.3277
▁따로없다	-11.3277
▁싫지만	-11.3277
했답니다	-11.3277
▁목줄	-11.3277
▁얘길	-11.3277
▁어이구	-11.3277
▁안타깝네요	-11.3277
바다	-11.3277
나봐여	-11.3278
▁해커	-11.3278
▁바르게	-11.3278
▁음란	-11.3279
▁시설	-11.3279
▁났는데	-11.3279
요즘은	-11.3279
▁겁이	-11.3279
▁흔들릴	-11.3279
▁부끄럽고	-11.328
▁걔랑	-11.328
▁몰랐던	-11.328
▁싶었는데	-11.3281
▁고쳐라	-11.3282
▁괴로워요	-11.3282
▁안전하게	-11.3282
▁협조	-11.3282
▁빈자리	-11.3282
줘야할지	-11.3282
▁절단	-11.3282
▁변호인	-11.3283
▁달성	-11.3283
안되는	-11.3283
▁대단함	-11.3283
▁고맙네요	-11.3283
▁걱정돼요	-11.3284
▁수고했다	-11.3284
▁생겼는데	-11.3284
▁얘들아	-11.3284
▁엘지폰	-11.3284
▁대작	-11.3285
▁재발	-11.3285
▁노인네	-11.3287
▁벼락	-11.3288
진거	-11.3288
중심	-11.3288
인가보네	-11.3289
▁디바	-11.3289
일일이	-11.3289
▁구속수사	-11.329
▁전량	-11.329
▁나온거	-11.329
▁걱정마	-11.3291
▁인용	-11.3291
▁그렇네요	-11.3291
▁가결	-11.3291
▁쿨하	-11.3291
▁뭔소리	-11.3291
단위	-11.3291
▁숨기고	-11.3292
▁썼는데	-11.3292
▁알아보고	-11.3292
찌르	-11.3292
▁망했네	-11.3292
증세	-11.3293
▁보고싶어요	-11.3293
▁버렸	-11.3293
▁중요하지만	-11.3293
▁비슷하네	-11.3294
▁어렵고	-11.3294
▁안와요	-11.3294
▁한숨만	-11.3294
▁산모	-11.3294
용한	-11.3294
▁하나씩	-11.3295
▁매수	-11.3295
▁싸이	-11.3295
▁근성	-11.3295
▁잘하더라	-11.3296
▁후려	-11.3296
▁오래살	-11.3296
▁바꿨	-11.3296
▁이번달	-11.3297
▁지쳐	-11.3297
▁멈	-11.3297
▁보급	-11.3297
▁서열	-11.3297
무고한	-11.3297
▁삽	-11.3298
뭐지	-11.3298
▁있잖아요	-11.3298
▁필요해	-11.3299
▁신용	-11.33
냈다	-11.33
▁없었다면	-11.33
▁쓰다니	-11.33
▁지옥에	-11.3301
▁물어봐	-11.3301
▁재회	-11.3301
▁부정부패	-11.3302
▁짬	-11.3302
▁지켜라	-11.3302
▁훌	-11.3302
인것처럼	-11.3302
▁멀리서	-11.3302
▁불태워	-11.3302
▁캔	-11.3302
▁간호장교	-11.3302
▁뵈	-11.3302
▁껍데기	-11.3302
▁수류탄	-11.3302
▁읭	-11.3302
▁최경희	-11.3302
▁기가찬다	-11.3302
▁만능간장	-11.3302
▁인프라	-11.3302
▁^.^	-11.3302
▁이경재	-11.3302
▁이진욱	-11.3302
▁아몰랑	-11.3302
▁세븐	-11.3302
▁차은택	-11.3302
▁최저시급	-11.3303
였구나	-11.3303
▁햄	-11.3303
▁뛸	-11.3303
▁국뽕	-11.3303
▁케이블	-11.3303
▁수상소감	-11.3303
▁앵커	-11.3303
▁이재학	-11.3303
▁캐스터	-11.3303
▁김태균	-11.3303
분명	-11.3303
▁감사합니당	-11.3303
▁뜨거운	-11.3303
▁장예원	-11.3303
▁뜨겁	-11.3303
▁앞잡이	-11.3303
▁수갑	-11.3304
▁기자양반	-11.3304
▁살인사건	-11.3304
▁국민세금	-11.3304
▁사건사고	-11.3305
▁믿어요	-11.3305
▁잘됐다	-11.3305
▁화가난다	-11.3305
맹이	-11.3305
▁상세	-11.3305
▁몰랐네요	-11.3305
▁자랑스럽다	-11.3305
▁오지마라	-11.3306
▁욕하지	-11.3306
▁없죠	-11.3306
▁여장	-11.3306
▁저번주에	-11.3306
▁벌이	-11.3306
▁무너진	-11.3307
▁철학	-11.3308
억이라니	-11.3308
▁몇년째	-11.3308
으휴	-11.3308
▁생계	-11.3308
▁국정화	-11.3309
▁윤아	-11.3309
▁강철	-11.3309
▁오직	-11.331
리즈	-11.331
▁막달	-11.331
▁옆집	-11.331
▁빠르네요	-11.331
▁아싸	-11.331
▁식사	-11.3311
▁돈버	-11.3312
▁기다린다	-11.3312
▁너무너무너무	-11.3312
앗다	-11.3312
▁골반	-11.3313
게되요	-11.3313
▁좋아했는데	-11.3313
▁올라가서	-11.3313
▁김종민씨	-11.3314
▁저러나	-11.3315
하였다	-11.3315
했나요	-11.3315
▁잘하던데	-11.3316
▁핵개발	-11.3317
▁모르냐	-11.3317
▁떠오르는	-11.3318
▁어우	-11.3318
▁올려라	-11.3318
▁기대됨	-11.3319
▁모른	-11.3319
▁소음	-11.3319
했을텐데	-11.3319
▁떠들어	-11.3319
▁39	-11.332
국대	-11.332
▁어떤가요	-11.332
▁내란죄	-11.3321
▁에스	-11.3321
▁알려주세요	-11.3321
▁편히	-11.3321
▁무서운데	-11.3321
▁수십년	-11.3321
▁한끼	-11.3323
▁배경	-11.3323
▁떨어지네	-11.3324
▁최후	-11.3324
나왔네	-11.3325
▁키작	-11.3325
▁인간적인	-11.3326
▁안하겠지	-11.3326
▁후진	-11.3326
▁똥물	-11.3326
▁4.5	-11.3329
▁사라져야	-11.3329
한민국	-11.3329
▁술값	-11.3329
▁놔	-11.333
▁이십니다	-11.333
▁니미	-11.3331
▁아닐지	-11.3331
▁세차	-11.3331
▁4~5	-11.3331
▁돌아왔	-11.3331
▁자질	-11.3332
▁생각지도	-11.3332
▁미루	-11.3333
▁서해	-11.3333
할수있을	-11.3334
▁수학	-11.3334
▁하트	-11.3336
▁후폭풍이	-11.3336
▁이중적	-11.3336
연결	-11.3336
▁넘었는데	-11.3337
▁안갔다	-11.3337
▁악녀	-11.3337
▁초심	-11.3337
▁못막	-11.3337
인것같다	-11.3338
▁지금쯤	-11.3338
▁사귀면	-11.3338
▁고유	-11.3339
▁거짓으로	-11.3339
▁날뛰	-11.334
▁비유	-11.334
▁회의	-11.3341
▁재용이가	-11.3341
▁감옥으로	-11.3342
▁도피	-11.3342
▁은퇴하고	-11.3342
때문인가	-11.3343
▁심각하다	-11.3343
▁여름이	-11.3344
▁연기대상	-11.3345
추카	-11.3345
고있어	-11.3346
▁세우고	-11.3348
▁토일	-11.3349
▁벤치	-11.3349
▁앞길	-11.3349
▁아이구	-11.335
▁뽑았다	-11.335
▁쓸어	-11.335
▁사례	-11.3351
▁이슈	-11.3351
▁최후의	-11.3351
▁단체로	-11.3352
▁충격이다	-11.3352
▁여수	-11.3353
왔었는데	-11.3353
받으러	-11.3355
▁괴로워	-11.3355
▁생각합니다	-11.3356
▁마셔도	-11.3356
▁그것보다	-11.3357
하겠구나	-11.3358
신이	-11.3358
▁장난치는	-11.3359
▁국민투표	-11.336
현재	-11.336
▁뚝	-11.336
남자는	-11.336
▁순실이년	-11.3361
댄다	-11.3362
인거지	-11.3363
▁정신차려	-11.3363
연구	-11.3366
돌리기	-11.3366
▁같지만	-11.3368
▁모르네	-11.3368
▁뽕	-11.3368
▁대단하네요	-11.3368
땅이	-11.3368
▁좋아하게	-11.3369
되는걸	-11.337
▁수요일	-11.337
▁정장	-11.337
▁느끼고	-11.3373
▁좋은가요	-11.3373
▁흥분	-11.3373
▁올려봅니다	-11.3373
모습으로	-11.3373
▁깜	-11.3374
▁뺄	-11.3376
때문이지	-11.3376
▁어떻게해야	-11.3377
▁공급	-11.3378
▁샤	-11.3378
색이	-11.3378
▁의료	-11.3379
▁환장	-11.3379
▁예능에서	-11.3379
▁걱정돼	-11.3379
데이	-11.3379
▁마린시티	-11.3379
▁기득권	-11.3379
▁h	-11.3379
▁캐나다	-11.3379
▁쓰나	-11.3379
▁액션	-11.3379
▁계좌	-11.338
▁세이브	-11.338
▁존잼	-11.338
▁삽니다	-11.338
▁대사관	-11.338
▁소개팅	-11.3381
▁보일러	-11.3381
▁현명	-11.3381
▁죄값	-11.3381
▁약해	-11.3382
▁어디가서	-11.3382
쳐먹고	-11.3382
▁알바비	-11.3382
▁도끼	-11.3382
▁있으신가요	-11.3382
▁생김	-11.3382
▁입시	-11.3382
▁명곡	-11.3382
▁취향	-11.3382
▁닭사모	-11.3382
▁좋을지	-11.3383
▁재능	-11.3383
▁뭣도	-11.3383
▁학점	-11.3383
▁자녀들	-11.3384
▁작작	-11.3384
▁워드	-11.3384
▁주심	-11.3384
▁그지같은	-11.3385
▁잘돌아간다	-11.3385
반도	-11.3385
▁한두번이	-11.3385
▁옥시	-11.3386
▁사형시켜야	-11.3387
▁돌파	-11.3387
▁그외	-11.3388
▁표현의	-11.3389
▁짤릴	-11.3389
▁선포	-11.3389
▁헤어졌는데	-11.339
▁살아있	-11.339
▁측근들	-11.339
▁따져	-11.3391
▁리더	-11.3392
▁앗	-11.3392
까도	-11.3392
▁처먹는	-11.3393
▁될텐데	-11.3394
▁현실이다	-11.3394
▁육아	-11.3394
▁맞는데	-11.3395
▁시티	-11.3395
▁인형	-11.3395
▁존재감	-11.3396
거네	-11.3396
▁추운날씨	-11.3398
▁좋아하는데	-11.3399
▁싫음	-11.3399
▁가방	-11.34
▁못가고	-11.34
▁미친개	-11.3401
▁질리	-11.3402
▁제길	-11.3402
▁머하냐	-11.3402
전자	-11.3402
▁기획사	-11.3404
할뻔	-11.3405
▁선생님의	-11.3405
▁사람이라	-11.3405
게요	-11.3407
▁어려워서	-11.3407
▁어떻게해야할지	-11.3407
▁조선놈들	-11.3407
▁심한	-11.3409
▁이른	-11.341
▁한개	-11.341
감을	-11.3411
일지도	-11.3411
▁그전에	-11.3411
문을	-11.3411
▁영감	-11.3411
▁말아먹은	-11.3412
▁기계가	-11.3413
▁말씀드리	-11.3413
판을	-11.3415
▁내란	-11.3416
졋다	-11.3416
▁생각하는데	-11.3416
만든	-11.3416
▁잘했어요	-11.3417
▁믿는다	-11.3418
▁희생자	-11.3418
▁잠들	-11.3418
드라마를	-11.3418
▁거지같은	-11.3419
▁저러다가	-11.342
▁닭이랑	-11.3422
▁오래사	-11.3422
병우	-11.3422
받아봐야	-11.3424
야되나요	-11.3424
했다며	-11.3424
▁여러분들은	-11.3425
▁억울하다	-11.3426
▁큰데	-11.3426
안됐는데	-11.3426
▁해군	-11.3427
▁피임	-11.3427
▁t	-11.3428
▁귀여워요	-11.3429
▁원정	-11.3429
▁나겠네	-11.3429
▁작고	-11.343
▁잡았는데	-11.343
▁사라지고	-11.3433
▁도둑놈들	-11.3434
▁상위	-11.3436
뇬아	-11.3437
▁부끄럽지도	-11.3439
▁소니	-11.3439
▁김장	-11.3439
해도될까요	-11.3441
▁사귀면서	-11.3441
▁신체	-11.3441
▁환승	-11.3444
령이	-11.3444
▁쪼	-11.3444
▁플	-11.3444
억을	-11.3444
정을	-11.3446
▁세번	-11.3446
▁못난	-11.3446
▁붕	-11.3447
막혀	-11.3449
▁판매를	-11.345
▁바뀐	-11.3451
▁세력	-11.3451
▁지상	-11.3451
질않	-11.3452
▁건강하고	-11.3453
▁편하다	-11.3454
▁한순간	-11.3454
없을때	-11.3456
▁검증	-11.3458
▁멜	-11.3458
▁텅	-11.3458
▁j	-11.3458
▁안해주	-11.3459
▁귀여	-11.3459
있노	-11.346
▁생일축하해	-11.346
잇음	-11.346
받을거다	-11.346
▁할아버지가	-11.3461
▁억울하	-11.3461
▁기억나	-11.3462
▁종자들	-11.3462
▁할매	-11.3463
▁없다는게	-11.3463
▁먹으	-11.3463
▁게시판	-11.3463
▁질서	-11.3463
▁입닫	-11.3464
궁금한데	-11.3464
▁쉬우	-11.3465
▁당황하는	-11.3465
5%	-11.3466
▁보여주세요	-11.3466
▁읽지	-11.3466
▁반짝	-11.3467
▁올릴	-11.3467
▁작성	-11.3467
▁만나지	-11.3468
▁질려	-11.3468
▁남일	-11.3469
▁없는듯	-11.3469
▁저에겐	-11.347
▁소속	-11.347
▁같냐	-11.347
▁같았는데	-11.3471
▁알죠	-11.3471
▁주차장	-11.3471
▁웃음이	-11.3473
▁엉망이	-11.3474
▁인권은	-11.3474
작이	-11.3475
하시네	-11.3476
아래	-11.3477
▁배울	-11.3478
▁발전하는	-11.3478
▁생각할	-11.3478
▁공중	-11.3479
▁취업하기	-11.348
▁받아야지	-11.348
▁말하는데	-11.3481
▁될것이다	-11.3481
▁올린	-11.3482
▁기온	-11.3482
▁현실로	-11.3482
첫날부터	-11.3482
▁의미없다	-11.3484
▁남았다	-11.3485
인디	-11.3486
▁노무	-11.3487
할거다	-11.3488
▁나더라	-11.3489
▁퍼주	-11.3489
들으면	-11.3489
▁맨유에서	-11.349
▁요금제	-11.349
▁의지	-11.3491
▁기간	-11.3492
▁아니에요	-11.3496
▁예보를	-11.3496
심을	-11.3497
짱깨	-11.3497
▁똑똑하	-11.3497
▁안할거	-11.3497
▁드림	-11.3499
▁일하는데	-11.35
▁죽고싶다	-11.3501
▁촌	-11.3503
▁안되네	-11.3505
▁잘나가는	-11.3505
▁현지	-11.3505
먹는데	-11.3505
주길	-11.3505
▁초아	-11.3507
▁여자에게	-11.3509
십시오	-11.3509
▁삐	-11.3509
▁구상	-11.3512
ᄏᄏᄏᄏᄏᄏᄏᄏᄏᄏᄏ	-11.3512
근헤	-11.3516
▁가자고	-11.3518
로서는	-11.3519
▁다니는데	-11.352
하겠는데	-11.3521
▁죄송하다	-11.3521
▁말아먹는	-11.3523
▁키야	-11.3523
라는말	-11.3524
▁재미없	-11.3524
▁신비	-11.3525
▁해야될까요	-11.3526
▁무한	-11.3526
담당	-11.3527
▁실력에	-11.3529
피를	-11.3529
▁좁은	-11.353
스카	-11.353
▁있을듯	-11.353
▁보고싶은데	-11.3532
▁돌아올	-11.3532
▁올라가는	-11.3533
▁본받	-11.3534
▁떨어지면	-11.3535
▁양심없는	-11.3536
▁당신들	-11.3536
▁상관없다	-11.3536
▁하셨습니다	-11.3538
▁젓	-11.3539
▁봅시다	-11.3539
▁집에만	-11.3542
▁우째	-11.3543
▁죽겠다	-11.3544
▁없다는	-11.3544
가아니라	-11.3544
▁건들	-11.3545
▁살려	-11.3546
▁토론	-11.3548
▁빌려	-11.3549
▁낮은	-11.3549
▁했구만	-11.355
한다는거	-11.355
▁등록	-11.3552
▁보네요	-11.3553
해야됨	-11.3554
▁댕기	-11.3554
▁빠진다	-11.3555
▁하는줄	-11.3555
년이네	-11.3556
▁대로	-11.3557
▁떨어지고	-11.3557
▁마네	-11.3559
▁안할수가	-11.3562
▁어색해	-11.3563
▁얘기하는데	-11.3563
였군	-11.3566
▁환장한	-11.3567
▁돼요	-11.3567
▁솔직하	-11.3573
▁힘없	-11.3574
▁이유도	-11.3574
왔던	-11.3575
▁시점	-11.3577
▁정도인데	-11.3578
▁주원	-11.3579
▁최악이	-11.3579
▁가는지	-11.358
▁맘속	-11.358
소나	-11.3581
▁구한	-11.3581
▁표시	-11.3583
이뿌	-11.3584
▁칭찬하	-11.3584
▁알기	-11.3585
▁일어	-11.3585
▁탈을	-11.3587
▁절망	-11.3588
▁숨이	-11.359
날에	-11.359
라는거	-11.3591
지기	-11.3591
▁염	-11.3591
▁막히	-11.3592
▁묻고	-11.3593
인구가	-11.3594
겠고	-11.3597
▁나갈	-11.3598
▁노후	-11.36
▁조치	-11.3603
▁참내	-11.3604
▁냉	-11.3605
두루	-11.3607
있는것도	-11.3613
▁드릴	-11.3615
수야	-11.3615
받아도	-11.3615
썼다	-11.3616
▁가스	-11.3617
▁푼	-11.362
▁호텔	-11.3621
▁태풍에	-11.3622
바지	-11.3623
▁900	-11.3625
▁양아	-11.3625
▁경고	-11.3625
사를	-11.3626
▁꼬박	-11.3629
▁바다	-11.363
▁결말이	-11.363
▁인맥	-11.363
▁부산에서	-11.3633
▁방송국	-11.3633
▁과자	-11.3634
▁조합이	-11.3636
놓으라고	-11.3636
▁당했다	-11.3636
실점	-11.364
▁팔아서	-11.3642
그러더니	-11.3642
▁엑스	-11.3645
▁맛을	-11.3649
▁대박이	-11.3651
만들었다	-11.3652
할수있	-11.3653
▁나오냐	-11.3654
▁할께요	-11.3655
받았습니다	-11.3656
▁있는거지	-11.3657
▁없애버리	-11.3657
▁봐야지	-11.3657
▁나누	-11.3658
▁나왔네	-11.3659
▁망친	-11.366
▁그분이	-11.366
▁됫	-11.3661
▁되겠네요	-11.3662
▁넣어야	-11.3666
▁비교를	-11.3667
▁청와대로	-11.3668
잡이	-11.3668
~~~~~~~~	-11.3669
는거보니	-11.3669
보자고	-11.3671
▁그림이	-11.3671
▁일들	-11.3671
제를	-11.3673
▁본적도	-11.3677
▁일당들	-11.3678
▁응원한다	-11.3678
▁없게	-11.3678
지금은	-11.3679
높은데	-11.368
려요	-11.368
▁분노가	-11.3681
▁차도	-11.3683
여부	-11.3683
▁같지도	-11.3684
위의	-11.3686
▁있었던거	-11.3686
▁도둑질	-11.369
▁유게	-11.3692
▁주간	-11.3693
더군	-11.3694
▁노력하는	-11.3695
여성	-11.3696
▁너희가	-11.3699
▁성공해	-11.37
▁깡	-11.3701
게아니고	-11.3702
▁X	-11.3702
▁기관	-11.3708
하시지	-11.3708
대모	-11.3709
▁넓은	-11.371
전에서	-11.3711
할거야	-11.3711
▁충	-11.3714
볼듯	-11.3714
▁망신	-11.3714
▁전여친이	-11.3715
루는	-11.3715
▁안고	-11.3716
▁b	-11.3717
인가봐	-11.3717
▁비만	-11.3719
▁팔에	-11.3722
▁변기	-11.3722
▁막아	-11.3723
▁간지	-11.3726
▁안들어	-11.3728
▁군인들	-11.3728
▁교수들	-11.3731
▁이완용이	-11.3733
▁쉬고	-11.3733
▁미쳐가는	-11.3734
▁찾았	-11.3736
▁무슨일	-11.3736
▁테러가	-11.374
▁총을	-11.374
공간	-11.374
▁주인이	-11.374
▁길로	-11.3741
▁했는데요	-11.3741
▁시켜서	-11.3743
란말	-11.3743
▁놀러가	-11.3744
▁잘하는데	-11.3745
▁놓으면	-11.3745
▁의사들	-11.3747
▁ᆞ	-11.3747
▁가는구나	-11.3748
▁물리	-11.3748
▁사정	-11.3752
▁중국어	-11.3752
▁학교에	-11.3752
▁아이들을	-11.3757
▁세일	-11.3757
었으니	-11.3762
▁못내	-11.3763
▁몰리	-11.3764
▁400	-11.3765
종일	-11.3765
▁배에	-11.3765
용해서	-11.3766
설명	-11.3767
▁주기	-11.3768
▁되요	-11.3768
▁여야	-11.3771
▁화를	-11.3771
▁그런사람	-11.3773
일거다	-11.3775
▁터진다	-11.3776
같으	-11.3777
다니고	-11.3777
털이	-11.3778
▁몇살	-11.378
폰을	-11.3781
되니	-11.3783
▁우리한테	-11.3784
점대	-11.3785
▁생각인데	-11.3786
▁배우는	-11.3787
무죄	-11.3787
타령이	-11.3788
내려고	-11.3789
▁버릴	-11.379
▁댓글은	-11.3793
▁다른애들	-11.3798
도아니고	-11.3798
갔네	-11.3805
▁튀	-11.3807
▁방위	-11.3807
▁켜	-11.3807
▁축구에	-11.3809
▁옛날에	-11.3809
▁자네	-11.3816
개돼지로	-11.3817
▁칭찬해	-11.3818
▁없어져	-11.3821
줄이	-11.3823
만원으로	-11.3826
래도	-11.3826
아닌	-11.3827
미안	-11.3828
▁저런데	-11.3828
▁불리	-11.3828
터졌	-11.383
▁눈으로	-11.3832
▁얼마받	-11.3832
▁원서	-11.3832
▁상황에	-11.3836
▁흘러	-11.3839
▁원장	-11.384
▁할말없	-11.384
분만	-11.3842
년후	-11.3842
여자들	-11.3844
▁!!!!!!	-11.3846
▁친구놈	-11.385
청장	-11.385
▁왜사	-11.3852
스럽습니다	-11.3853
산지	-11.3856
▁잘한다고	-11.3858
▁좌	-11.3858
▁있을것	-11.386
▁하늘에	-11.386
▁나가기	-11.3861
▁알겠	-11.3864
▁결방	-11.3864
국수	-11.3866
▁하나가	-11.3866
▁감시	-11.3869
할수있는게	-11.387
돌아왔다	-11.387
▁불로	-11.3873
린거	-11.3874
받자	-11.3874
▁됬는데	-11.3874
지나가면	-11.3878
다구	-11.3879
▁한다니	-11.388
주의가	-11.388
▁살아갈	-11.3881
▁놔두	-11.3885
▁일본과	-11.3887
▁전과	-11.3888
▁완벽하	-11.3888
▁넘기	-11.3889
▁후배들	-11.3889
정체	-11.389
▁배우님	-11.3891
▁나아	-11.3893
▁이상해서	-11.3893
그러	-11.3895
▁한달만	-11.3897
▁못보고	-11.3902
▁기초	-11.3903
▁참아	-11.3906
▁부모는	-11.3908
해진다	-11.3909
▁영화로	-11.3909
▁올렸	-11.3911
개월인데	-11.3912
▁들지	-11.3912
▁보여줘야	-11.3914
▁안남은	-11.3916
▁키도	-11.3916
보시	-11.3917
시키는거	-11.3917
▁계신분	-11.3918
같은것도	-11.392
▁성매매	-11.392
▁한다는데	-11.3923
었죠	-11.3926
듯한데	-11.3928
▁코가	-11.3931
▁오네요	-11.3937
▁욕먹는	-11.3939
▁낳으면	-11.394
▁옥	-11.3947
지금부터	-11.3947
▁저러니	-11.3949
팬은	-11.3949
▁대비	-11.3954
▁밀리는	-11.3954
▁신경쓰이	-11.3955
▁택시기사	-11.3955
▁뭘해	-11.3959
▁안돼요	-11.3962
덥고	-11.3965
만나고	-11.3965
면서도	-11.3967
▁결함	-11.3967
망칠	-11.397
집은	-11.3972
학년때	-11.3973
▁빠지는	-11.3973
넘들아	-11.3974
▁사이에	-11.3978
나간	-11.3979
너같은	-11.398
눈이	-11.398
시원하게	-11.3981
▁듣다	-11.3983
우스	-11.3983
▁재벌이	-11.3985
▁발견한	-11.3986
주가	-11.3989
▁비교되	-11.399
▁인생의	-11.3991
▁곳에서	-11.3996
▁대학가	-11.3998
한데요	-11.3999
▁미쳤	-11.4003
▁던지는	-11.4004
▁취해	-11.4005
▁졸려	-11.4009
▁아니여	-11.401
▁몰수	-11.4016
을꺼	-11.4017
저거	-11.4019
먹어야	-11.404
사면	-11.4041
▁지나갔	-11.4043
남기	-11.4045
경은	-11.4046
▁예술이	-11.4049
!!!!!!!!!!!!	-11.4057
▁햇는데	-11.4059
억씩	-11.4061
▁서있	-11.4063
왔으면	-11.4073
▁멸	-11.4078
▁의미없	-11.4078
거는	-11.4079
▁합쳐	-11.408
▁타이밍이	-11.4082
▁아끼	-11.4083
▁봤던	-11.4088
때만	-11.4089
900	-11.409
날리고싶	-11.4091
▁설날	-11.4091
기전까지	-11.4095
▁하는건가	-11.4096
질까요	-11.4099
▁해쳐먹	-11.41
이라더니	-11.4104
▁발로	-11.4105
▁얼굴만	-11.4106
▁복이	-11.4113
....??	-11.4115
▁대사	-11.4116
너무나	-11.4118
할때도	-11.4119
▁경기장	-11.412
가야하는데	-11.4121
친다	-11.4122
▁얘들	-11.4123
받을수있	-11.4129
사장	-11.4129
님들아	-11.4129
▁같은건	-11.4129
▁없잖아	-11.4129
▁주위에	-11.4129
중국에서	-11.413
▁심심	-11.4132
지금도	-11.4137
▁비참	-11.4137
▁것인가	-11.4138
▁넘쳐	-11.414
▁할줄	-11.4141
가지구	-11.4141
▁조센징들	-11.4144
보여주	-11.4148
엿	-11.4152
해주길	-11.4152
▁팔려	-11.4158
▁쓴거	-11.4159
▁다님	-11.4161
들때문에	-11.4162
▁발악	-11.4163
▁주말이	-11.4165
대학	-11.4166
닫고	-11.4167
▁변하지	-11.4168
▁버티는	-11.4168
대상이	-11.4171
달이	-11.4172
av	-11.4176
▁아랫배	-11.4178
카페	-11.4178
▁덥	-11.418
안되고	-11.4183
먹었	-11.4183
▁빼야	-11.4185
심하게	-11.4187
▁애쓰	-11.4189
▁하는거냐	-11.419
▁기대하고	-11.4191
▁안함	-11.4191
속이	-11.4192
▁대통년	-11.4198
▁마나	-11.4199
억짜리	-11.4199
▁소원	-11.4201
▁싸울	-11.4202
▁이니	-11.4205
▁양아치들	-11.4209
▁견	-11.4209
▁힘드	-11.4209
니들이	-11.421
보지도	-11.4211
▁이영	-11.4212
▁끝나지	-11.4214
▁생긴것	-11.4214
▁이하	-11.4217
한다는게	-11.4217
▁엄청나네	-11.4219
▁사네	-11.422
타워	-11.4221
▁할머니들	-11.4227
▁이겨	-11.4229
▁남자로	-11.4232
▁한국을	-11.4236
▁같았	-11.4242
으려나	-11.4244
있겠	-11.4245
▁입은	-11.4246
소설	-11.4247
▁자존심이	-11.4256
▁차량이	-11.4258
▁여자친구랑	-11.4264
갖	-11.4265
▁포기한	-11.4266
▁안볼	-11.4278
라니까	-11.4278
▁휴학	-11.4279
▁중졸	-11.4284
▁옮기	-11.4285
▁미국으로	-11.4285
▁잘하면	-11.4287
할것같아	-11.4289
▁쑤시	-11.429
▁여지	-11.4291
▁그놈이	-11.4291
▁올라갈	-11.4293
한거지	-11.4294
▁봐서	-11.4295
기시작	-11.4295
▁위험하	-11.4296
~~"	-11.4298
▁모르겠	-11.43
▁=	-11.43
▁상처받	-11.4303
▁달라졌	-11.4303
▁앙	-11.4305
▁재주	-11.4306
▁도망가	-11.431
▁쟤들	-11.431
▁버텨	-11.4321
짓하고	-11.4322
추천	-11.4322
열사	-11.4322
▁대면	-11.4325
▁했으니	-11.4326
▁그네는	-11.4327
겠단	-11.4328
▁해봤	-11.433
▁세금이	-11.433
고있네	-11.4331
가치가	-11.4333
▁당당한	-11.4334
일주일	-11.4335
▁상관없는	-11.434
▁정자	-11.434
▁주민들	-11.4344
되죠	-11.4345
▁빼먹	-11.4346
▁고만	-11.435
중입니다	-11.435
비용이	-11.4353
▁박사모가	-11.4353
▁무시무시	-11.4355
▁알고있	-11.4356
번을	-11.4358
이었습니다	-11.4361
속도가	-11.4361
▁약물	-11.4361
▁병신년이	-11.4362
하더군요	-11.4362
▁돌리는	-11.4365
시피	-11.4365
이뻐	-11.4369
▁실적	-11.4369
▁흘리	-11.437
축하합니다	-11.4374
지는건가요	-11.4381
▁제한	-11.4382
이면서	-11.4387
▁차리	-11.439
이래요	-11.4395
한걸	-11.4395
▁보이나	-11.4395
▁중대	-11.4398
▁추가해	-11.4402
값이	-11.4403
▁차지	-11.4407
만하네	-11.4409
가진	-11.441
▁글고	-11.441
간거	-11.4413
▁보내지	-11.4419
▁주장	-11.4424
-_-;	-11.4425
▁전까지	-11.4425
려구요	-11.4426
▁남녀평등	-11.4426
던거	-11.4427
시절에	-11.4431
였다니	-11.4433
▁어찌할	-11.4439
▁걸려	-11.444
ᅲᅲᅲᅲᅲᅲᅲᅲᅲᅲᅲᅲ	-11.4444
▁열폭	-11.4444
받았는데	-11.4445
끝에	-11.4446
먹히는	-11.4448
▁승승장구	-11.4452
▁창피	-11.4456
천억	-11.4456
▁먹는게	-11.4457
▁거리고	-11.4459
▁한둘	-11.446
▁보내는	-11.446
▁쓰레기네	-11.4461
▁노인네들이	-11.4461
아니라고	-11.4461
▁집안이	-11.4463
▁말든	-11.4464
▁순수하	-11.4464
▁하시	-11.447
▁때려잡	-11.4476
▁몽	-11.4477
▁기억해	-11.4484
▁유부남	-11.4485
▁중에서	-11.4485
드려	-11.4489
버린다	-11.4493
▁기상청이	-11.4499
짓고	-11.4501
▁살아도	-11.4503
오니까	-11.4504
▁꼴이	-11.4504
▁떠나는	-11.4506
환불	-11.4507
는거아닌가요	-11.451
푸는	-11.4511
▁올라와	-11.4512
직종	-11.4512
▁댓글만	-11.4516
▁연락할	-11.4516
이랑은	-11.4516
▁공개하	-11.4518
▁일하다	-11.452
부정	-11.4521
못할까봐	-11.4526
▁연기로	-11.4532
된건지	-11.4533
▁글올	-11.4533
▁분수	-11.4534
▁쉬울	-11.4537
▁아니었어	-11.4538
▁맞추는	-11.4539
생겼네	-11.454
▁버텨야	-11.454
▁개망신	-11.4546
숙이	-11.4549
▁공부하는	-11.455
교수	-11.455
넣고	-11.455
▁쿠	-11.4555
▁찾아서	-11.4556
▁김종	-11.4558
▁모양이	-11.456
햇어	-11.456
▁미세먼지는	-11.4561
▁아니였	-11.4562
▁옳	-11.4564
▁박효신	-11.4565
▁쓰다	-11.4566
성격	-11.4568
▁생일이	-11.4568
주는게	-11.4569
▁헤어지는	-11.4571
▁총맞	-11.4572
▁팔았	-11.4573
▁비하하	-11.4573
리도	-11.4576
▁전쟁나	-11.4577
▁지원해	-11.4578
▁걱정스럽	-11.4583
▁중졸이	-11.4583
▁160	-11.4587
▁길거리에	-11.4589
▁여자다	-11.4594
심하고	-11.4595
ᅮᅳ	-11.4599
♡♡♡♡	-11.4599
제공	-11.4613
▁중딩	-11.4616
점으로	-11.462
어디서든	-11.4621
▁현실에	-11.4621
▁바이	-11.4624
맘이	-11.463
리거	-11.4631
▁헤어졌	-11.4632
▁청와대는	-11.4634
받는다고	-11.4636
▁들아	-11.4636
쳐먹	-11.4641
▁경기력	-11.4645
▁신라	-11.4646
▁니놈	-11.4649
▁사기꾼들	-11.4651
▁잘알	-11.4651
▁하나님이	-11.4651
▁인연	-11.4652
이상한	-11.4653
▁선물해	-11.4655
가슴	-11.4656
▁차고	-11.4657
▁재미나	-11.4667
▁찾는	-11.4667
생기면	-11.467
당해	-11.4671
▁신기해	-11.4673
▁가졌	-11.4673
▁거네	-11.4674
좋아하는	-11.4675
업소	-11.4676
▁그지	-11.4676
거아니냐	-11.4678
▁이글	-11.4682
▁문제고	-11.4684
▁중소기업이	-11.4685
▁의도적	-11.4686
▁견찰이	-11.4686
해두	-11.4687
근로	-11.4689
▁넘을	-11.469
물로	-11.4695
~~~!	-11.4696
▁말하기	-11.4698
건가여	-11.4699
판이	-11.47
과학	-11.4701
▁최순실의	-11.471
▁해석	-11.4716
▁힘든건	-11.472
▁준다는	-11.4722
주위에서	-11.4724
▁총장	-11.4724
탓이	-11.4727
일수	-11.4732
틀면	-11.4732
▁그놈	-11.4733
▁자기만	-11.4734
▁편이	-11.4735
600	-11.4736
▁무지한	-11.4736
▁살수	-11.4737
당하	-11.4739
찾아	-11.474
잇냐	-11.4743
지구	-11.4747
사진을	-11.4748
▁소지	-11.4748
▁왜이러	-11.4748
▁해가	-11.475
▁84	-11.4752
한거임	-11.4752
상황이	-11.4752
▁사장이	-11.4756
▁국가적	-11.4766
안타	-11.4766
중인가	-11.4774
▁아니겠	-11.4774
▁안먹	-11.4788
사람입니다	-11.4789
▁찌질이	-11.4789
▁여행가	-11.4791
들어오	-11.4793
려하는데	-11.4794
▁두시간	-11.4797
▁대박이네	-11.4797
▁몇시	-11.4801
과는	-11.4802
없던	-11.4802
▁모인	-11.4802
받음	-11.4804
이었나	-11.4804
실까요	-11.4807
▁바람이	-11.4807
▁새끼들이	-11.4808
셈	-11.4808
▁일주일전	-11.4815
▁되어있	-11.4819
▁주리	-11.4821
없냐	-11.4822
▁공무원이	-11.4823
▁쉬지	-11.4824
▁이상하네	-11.4825
▁헤쳐	-11.4826
▁죽이려	-11.483
▁가능할	-11.4831
둬라	-11.4831
▁받으	-11.4833
시장에	-11.4836
▁문화재	-11.4837
▁운동하	-11.484
뺏기고	-11.4842
▁주도	-11.4842
▁행동이	-11.4844
쟁	-11.4844
▁내릴	-11.4846
▁색깔	-11.4846
▁예술	-11.4847
됫는데	-11.4847
▁할까봐	-11.4851
▁검색해	-11.4852
▁부럽네	-11.4856
충들아	-11.4858
버리면	-11.4863
▁독한	-11.4863
▁거에요	-11.4864
▁하는중	-11.4865
▁이시간	-11.4866
종자	-11.4868
달동안	-11.4873
▁비오는	-11.4875
▁기다렸	-11.4877
▁수입해	-11.4884
▁주장하	-11.4885
드세요	-11.4885
▁뜸	-11.4895
못하나	-11.4899
▁드물	-11.4904
▁강해	-11.4906
꺼면	-11.491
아픈건	-11.4917
이었지만	-11.4918
정도가	-11.4919
▁때는	-11.4925
하시면	-11.4925
보이네	-11.4929
지겠네	-11.493
한다는데	-11.4931
▁선생님께	-11.4931
▁운운	-11.4935
▁안본	-11.4936
일쯤	-11.494
▁팔리는	-11.4944
▁싸가지	-11.4946
본적이	-11.4946
▁검색해보니	-11.4954
▁그러지	-11.4954
거잖아	-11.4956
둔다	-11.4957
▁까라	-11.4961
없지	-11.4962
오자	-11.4962
▁오네	-11.4965
갈까	-11.4966
남자친구가	-11.4967
▁새퀴	-11.497
심해서	-11.4971
뿌	-11.4974
이별	-11.4974
▁합법	-11.498
▁쪽발이	-11.4981
▁것보다	-11.4984
▁나라로	-11.4988
바꿔	-11.4989
▁일베충	-11.4989
▁못지않	-11.499
면접	-11.4992
▁채워	-11.4994
▁서울시	-11.4998
러워	-11.5001
▁젊은이들	-11.5002
▁군대는	-11.501
▁다시만나	-11.501
짤렸	-11.501
기다려	-11.5019
계를	-11.5022
명씩	-11.5022
다보면	-11.5025
▁두렵	-11.5033
▁개판이	-11.5035
었지	-11.5036
가장	-11.5038
▁못받았	-11.5042
▁나네	-11.5043
▁원가	-11.5045
▁받아들이	-11.5047
형도	-11.5049
▁구속시키	-11.5049
댕기	-11.5053
▁해줄	-11.5057
어어	-11.5063
저런게	-11.5064
갔나	-11.5066
▁헤어	-11.5067
▁중학교	-11.5074
하신다	-11.5074
▁같아요ᅲᅲ	-11.5074
▁말하지	-11.5075
만드는	-11.5076
잃	-11.5076
▁임신이	-11.5078
▁후덜덜	-11.5079
받았나	-11.5083
▁후배	-11.5083
타령	-11.5086
▁돼지들	-11.5088
▁간호사	-11.5092
ᄃᄃᄃᄃ	-11.5095
하겠나	-11.5095
기라도	-11.5096
▁조직이	-11.5099
▁도와	-11.5099
한명	-11.5107
▁고속도로	-11.5115
▁썩었	-11.5117
알았네	-11.512
쳐먹을	-11.5123
해여	-11.5125
▁증명해	-11.5125
▁있으	-11.513
겨라	-11.513
되기를	-11.5132
▁있나보	-11.5134
▁문제없	-11.5135
줄알았다	-11.5136
▁형돈	-11.5138
기기	-11.5142
손님	-11.5146
~!!!!	-11.5148
▁옷이	-11.5151
▁막고	-11.5151
퍼트	-11.5153
크림	-11.5154
▁괴롭히고	-11.5155
얌	-11.5157
▁좋으니	-11.5157
▁폭탄이	-11.5161
▁왜놈들	-11.5162
나라에서	-11.5162
▁예약한	-11.5163
구마	-11.5164
▁이번이	-11.5173
▁연락하고	-11.5173
▁틈	-11.5176
▁되는것	-11.5184
▁맺	-11.5184
개월만	-11.5187
서라도	-11.5188
져라	-11.5196
▁회사들	-11.5207
긋	-11.5209
▁비박	-11.5212
문제를	-11.5214
시는분	-11.5218
▁이런일	-11.5219
▁못생겼	-11.5221
▁대상이	-11.5221
나오니	-11.5223
나와요	-11.5224
민들	-11.5225
▁방향	-11.5226
장을	-11.5226
▁물가	-11.5229
▁같더라	-11.523
▁볼줄	-11.523
글이	-11.5233
▁징계	-11.5234
헤어지	-11.5238
▁서양	-11.5238
▁자살한	-11.524
▁사먹	-11.524
▁곡성	-11.5244
▁아부	-11.5245
▁목이	-11.5247
▁안뜨	-11.5248
차량	-11.5249
▁우울하	-11.525
▁투표하	-11.525
▁확고	-11.525
▁잘안되	-11.5251
좋은데	-11.5256
를위해	-11.5257
▁본거	-11.5259
▁피우	-11.5259
치는구나	-11.526
적이라	-11.526
▁일할	-11.5262
▁제정신	-11.5264
▁좀비들	-11.5264
내려오	-11.5265
애한테	-11.5266
▁공산당	-11.5271
▁것임	-11.5272
!!♡	-11.5272
▁한국인이	-11.5273
▁그만좀	-11.5273
남아서	-11.5275
▁청소년	-11.5277
줄알고	-11.5279
조절	-11.528
인정	-11.5282
한거냐	-11.5285
▁다니면	-11.5286
냔	-11.5287
이러	-11.5288
해야하나	-11.5289
이라는거	-11.5289
▁임신한	-11.5295
서요ᅲᅲ	-11.5296
남이	-11.5296
일가	-11.5299
▁돈없는	-11.5299
▁안될까	-11.53
▁격하	-11.5301
감독이랑	-11.5304
▁왜그러	-11.5305
명의	-11.5306
▁이분이	-11.5308
놀음	-11.531
줘요	-11.531
수들	-11.5314
▁성형한	-11.5314
아파	-11.5316
▁멋	-11.5316
부럽	-11.5317
▁입금	-11.532
썼	-11.532
▁같은게	-11.532
남자친구	-11.5321
팔아	-11.5322
확인	-11.5325
▁잇는	-11.5326
▁사법	-11.5326
마이	-11.5327
▁잘생겼	-11.5331
되는구나	-11.5332
꽃	-11.5333
인과	-11.5333
이었	-11.5335
뇨	-11.5336
▁엄마들	-11.5337
러지	-11.5339
멘탈이	-11.5339
나오시	-11.5342
▁때까지	-11.5342
▁솔직	-11.5344
었군	-11.5345
또한	-11.5347
가능성	-11.5347
▁깨끗	-11.5348
미치	-11.5349
▁국회의원이	-11.535
쌍	-11.5351
~?!	-11.5351
기사님들	-11.5351
죽어	-11.5351
▁족	-11.5353
▁지방대	-11.5356
▁좋아한다는	-11.5357
▁압도적이	-11.5358
뇬이	-11.5358
나보군	-11.5359
찾	-11.5359
.6	-11.5359
있던데	-11.536
▁싶으	-11.536
▁외국인이	-11.5361
생리	-11.5361
▁곳이라	-11.5362
박그네	-11.5364
▁기사제목	-11.5364
▁돈벌	-11.5365
▁영혼	-11.5367
▁폭망	-11.5367
때문이라	-11.5368
▁결말	-11.537
ᄃᄃᄃᄃᄃᄃ	-11.537
▁이원석	-11.5371
엘	-11.5372
지뭐	-11.5372
대우	-11.5373
▁연하	-11.5374
싫어서	-11.5374
▁처벌해야	-11.5374
▁키우고	-11.5374
콩	-11.5375
▁태풍이	-11.5375
춥	-11.5376
닉	-11.5377
달면	-11.5377
▁여성들	-11.5379
촉	-11.5379
ᄑ	-11.538
<	-11.538
뻘	-11.5381
츄	-11.5381
꺄	-11.5381
저승사자	-11.5381
퉤퉤	-11.5381
▁우리나라만	-11.5381
없나	-11.5381
사태가	-11.5381
*^^*	-11.5381
어린이집	-11.5381
탐지기	-11.5381
운운하	-11.5381
콘서트	-11.5382
간다고	-11.5382
▁못된	-11.5383
▁앱등이	-11.5384
량이	-11.5384
복이	-11.5385
항공	-11.5386
▁몰아	-11.5386
딴	-11.5387
끌	-11.5388
뻔뻔	-11.5389
사귀	-11.539
올수	-11.5391
아깝다	-11.5396
컵	-11.5396
뉴	-11.5398
읍	-11.5398
F	-11.5399
뜬	-11.54
꺼같아요	-11.54
색기들	-11.5401
도시락	-11.5402
적도	-11.5403
바퀴	-11.5404
얻	-11.5405
▁조그만	-11.5406
그랬	-11.5406
▁잘생겨	-11.5407
젓	-11.5409
봅시다	-11.5409
나라를	-11.541
바뀐	-11.541
휘	-11.5411
홀	-11.5412
쪼	-11.5412
듭니다	-11.5414
소연	-11.5415
쯔	-11.5416
공화국	-11.5416
쩝	-11.5416
치료	-11.5416
▁넥센에	-11.5416
삭	-11.5416
부역자	-11.5417
도니오빠	-11.5418
합격	-11.5418
우째	-11.5419
괴	-11.5419
▁미쳤나	-11.5419
등록	-11.5419
▁장관이	-11.5419
파괴	-11.5419
모름	-11.542
밑으로	-11.542
ᄋᄉᄋ	-11.542
ᅢ	-11.542
연합	-11.542
엉덩이	-11.5421
많으십니다	-11.5421
짜르	-11.5421
시술	-11.5421
탔	-11.5422
칼	-11.5422
시네	-11.5423
쇼핑	-11.5424
토론	-11.5424
엘쥐	-11.5426
압박	-11.5427
섬	-11.5427
더워	-11.5427
장애	-11.5427
맞춰	-11.5427
대륙	-11.5428
행복하세요	-11.5428
쉬운	-11.543
디자인	-11.543
씹	-11.5431
크리스마스	-11.5431
영업	-11.5431
느끼	-11.5431
1%	-11.5431
재밌게	-11.5431
영웅	-11.5432
어려운	-11.5432
가르쳐	-11.5432
라디오	-11.5432
갤	-11.5433
뼈	-11.5433
교과서	-11.5433
국에서	-11.5433
도와주세요	-11.5433
빚	-11.5434
사실인가요	-11.5434
명품	-11.5434
문재인	-11.5435
만드네	-11.5435
회장님	-11.5435
닭대가리	-11.5436
렴	-11.5436
죽고	-11.5436
~~~!!!	-11.5436
한심한	-11.5436
외교	-11.5436
홧팅	-11.5436
할아버지	-11.5436
출연	-11.5437
세븐틴	-11.5437
어떡하죠	-11.5437
취소	-11.5437
관광	-11.5438
쫌	-11.5438
연아선수	-11.5438
활약	-11.5438
슈퍼	-11.5438
변호사	-11.5438
연습	-11.5439
핸드폰	-11.5439
클라스	-11.5439
오히려	-11.5439
순시리	-11.544
당연히	-11.544
치킨	-11.544
태어나	-11.544
예능	-11.544
달하고	-11.5441
새누리당	-11.5441
있구나	-11.5441
▁어울리는	-11.5441
당연한	-11.5441
몰래	-11.5441
기상청	-11.5441
▁적다	-11.5442
경영	-11.5442
되겠네요	-11.5442
교체	-11.5442
네이버	-11.5443
표시	-11.5444
창조	-11.5444
놈아	-11.5445
좁은	-11.5445
출산	-11.5447
▁나갔다	-11.5447
쁠	-11.5447
1000	-11.5448
▁유도	-11.5448
▁괜찮다	-11.5448
▁사람만	-11.5449
변화	-11.5449
어쩔	-11.545
규제	-11.545
대접	-11.545
빨갱이	-11.545
팔면	-11.5451
어플	-11.5451
외국인	-11.5452
판매	-11.5452
▁다가오	-11.5452
아니야	-11.5453
했구만	-11.5453
키들아	-11.5454
통증	-11.5455
만보고	-11.5456
▁이시키	-11.5456
물론	-11.5456
분석	-11.5457
불안해요	-11.5457
자료	-11.5458
▁떨어	-11.5458
구역	-11.5459
조직	-11.546
단속	-11.546
▁하러	-11.5462
기레기	-11.5462
대응	-11.5466
연장	-11.5466
▁게이	-11.5466
▁얼굴보	-11.5466
뿌리	-11.5467
▁진심이	-11.547
▁관계자	-11.5472
주후	-11.5472
노조	-11.5473
▁만들어진	-11.5473
하지말자	-11.5473
막상	-11.5473
이러면	-11.5474
하는척	-11.5474
등신	-11.5474
▁있으신	-11.5476
걱정입니다	-11.5476
싸면	-11.5477
겁나	-11.5479
▁심하네	-11.5481
▁될것	-11.5483
울리는	-11.5484
아휴	-11.5486
▁똘아이	-11.5486
어휴	-11.5487
▁느껴	-11.5488
늙은	-11.549
▁홍어	-11.549
▁알바하고	-11.5491
아베	-11.5491
화장	-11.5493
생각하면	-11.5495
▁두산이	-11.5496
릭	-11.5496
다른사람들	-11.5496
시계	-11.5504
리더라	-11.5504
예상	-11.5505
있을	-11.5506
때리고	-11.5506
질문	-11.5508
정당	-11.5508
▁많더라	-11.5508
낫다	-11.5509
장사	-11.5509
조치	-11.551
외국	-11.5511
▁스타일이	-11.5511
체로	-11.5512
▁볼거	-11.5514
▁가르치	-11.5515
▁지금의	-11.5516
회사에서	-11.5517
한테만	-11.5519
싫은	-11.5523
▁운전하는	-11.5526
▁시댁	-11.5526
▁눌러	-11.5529
▁거리에	-11.553
교환	-11.5532
넘어가	-11.5533
구멍	-11.5535
참여	-11.5538
울고	-11.5539
북한	-11.5539
▁모은	-11.5539
그날	-11.5541
▁됐을	-11.5544
▁무너	-11.5546
▁종말	-11.5547
이후	-11.5549
▁크레	-11.5552
동상	-11.5555
백주부님	-11.5558
▁같애	-11.5558
▁붙어	-11.5559
좋아요	-11.5561
팔이	-11.5562
글에	-11.5562
ᅲᅲᅲᅲᅲᅲᅲᅲᅲᅲᅲᅲᅲᅲᅲ	-11.5564
▁저새끼	-11.5564
킨	-11.5564
자분들	-11.5565
아예	-11.5567
▁자기네	-11.5569
▁후폭풍	-11.5569
여기서	-11.5571
▁아쉬	-11.5571
▁이렇게나	-11.5572
27	-11.5574
월까지	-11.5575
▁사대	-11.5577
협	-11.5579
분께	-11.558
▁시술	-11.558
▁어색하	-11.558
행복한	-11.558
이번에	-11.5584
모가	-11.5586
아니지	-11.5586
칩니다	-11.5586
▁외교관	-11.5587
▁줄은	-11.5588
그사람	-11.5588
타자	-11.5588
의혹	-11.559
한줄	-11.5591
▁역겹	-11.5593
▁볼일	-11.5595
부인	-11.5596
▁못하네	-11.5596
가격은	-11.5599
▁않으니	-11.5601
구조	-11.5601
혀야	-11.5602
망한	-11.5603
제일	-11.5603
덤	-11.5604
목소리가	-11.5604
▁첫날	-11.5605
▁받으니	-11.5606
▁썻	-11.5607
▁수호	-11.5613
▁결혼할	-11.5614
▁끊는	-11.5615
▁지친	-11.5615
▁더러워	-11.5616
부분이	-11.5616
부서	-11.5618
시키지	-11.5618
거리에	-11.5619
댄	-11.5619
▁반납	-11.5621
벌어	-11.5625
▁소화	-11.5626
아이들	-11.5627
뭐야	-11.5627
망신	-11.5631
었겠지	-11.5631
▁안하는거	-11.5632
▁조선이	-11.5634
▁말하는거	-11.5634
▁재밌겠다	-11.5634
▁다를게	-11.5635
이유는	-11.5636
▁사진찍	-11.5636
▁빡치	-11.5638
▁우규민	-11.5642
▁부작용	-11.5643
▁만행	-11.5643
뛰어	-11.5644
▁닮아	-11.5644
▁믿기지	-11.5644
▁지난번	-11.5645
▁망해	-11.5645
멍청	-11.5646
▁쓸모	-11.5646
▁냄비	-11.5647
정치인	-11.5647
▁할수있다	-11.5649
묶	-11.5649
▁내놔	-11.5651
해주는데	-11.5652
들이다	-11.5653
나라의	-11.5656
▁재용이	-11.5656
▁그럴수	-11.5656
▁되돌아	-11.5656
폐하	-11.5657
칼로리	-11.5657
▁연관	-11.5659
노인	-11.5659
농담	-11.5659
간판	-11.5661
임신	-11.5661
▁유학	-11.5662
봐야지	-11.5664
방안	-11.5664
▁해고	-11.5664
▁담배피	-11.5667
불쌍	-11.5668
랫	-11.5669
매장	-11.5669
심하네요	-11.5669
사람인데	-11.5669
▁ᄒᄃ	-11.567
롭	-11.567
낸다	-11.5671
안전	-11.5672
▁아이돌이	-11.5673
지않았나	-11.5674
화상	-11.5675
▁썩었다	-11.5676
얼마전	-11.5676
▁기본적	-11.5679
꺼져	-11.568
▁쫒아	-11.568
▁싶지	-11.568
는거보고	-11.5681
먼지	-11.5681
▁미친것	-11.5682
....^^	-11.5683
▁떨어진거	-11.5685
▁인정한	-11.5685
▁본적이	-11.5686
▁들으면	-11.5687
▁수용	-11.5687
다닥	-11.5687
부족	-11.5688
점을	-11.5688
감기	-11.5689
놔라	-11.5689
피해	-11.569
▁수고했어	-11.569
겼	-11.5691
▁나쁘다	-11.5692
릅니다	-11.5692
옆	-11.5693
▁편이라	-11.5694
▁안됬	-11.5694
철이	-11.5698
뿐인데	-11.57
▁윤길현	-11.57
샛	-11.5701
▁쑈	-11.5702
전화도	-11.5703
렌	-11.5703
▁괴롭	-11.5704
몸이	-11.5706
있었음	-11.5708
은퇴	-11.571
▁수록	-11.5712
▁표현하	-11.5712
▁잘될	-11.5713
▁아작	-11.5713
큰일	-11.5713
쿨	-11.5715
격이	-11.5716
..^^	-11.5717
▁쪽팔려	-11.5717
▁코미디	-11.5718
여야지	-11.5718
▁한결같	-11.5719
------	-11.5721
해지고	-11.5721
늬	-11.5724
▁잔소리	-11.5725
▁헬스	-11.5725
혔	-11.5728
험	-11.5728
▁아름다	-11.5728
▁전직	-11.573
눔	-11.5732
만약	-11.5732
▁미워하	-11.5733
▁마셔	-11.5733
스러울	-11.5733
▁어울려	-11.5733
▁우습	-11.5733
▁여의도	-11.5734
▁고마웠어	-11.5734
▁지저분	-11.5736
종류	-11.5736
고싶지않	-11.5738
▁맑아	-11.5738
봤지	-11.5738
슬람	-11.5739
▁해산	-11.5739
절절	-11.5739
콤	-11.5742
에휴	-11.5742
꿔	-11.5743
주사	-11.5743
운동은	-11.5744
터라	-11.5744
뚜	-11.5745
댔	-11.5745
멘트	-11.5746
▁꿈꾸	-11.5747
▁2~3	-11.5747
롭지	-11.5747
있으니	-11.5747
▁영양	-11.5748
▁긴급	-11.5748
▁없을까	-11.5749
▁철저	-11.5749
칙	-11.575
▁ᄀᄀ	-11.575
▁짜장	-11.575
략	-11.5751
불렀	-11.5752
▁전성기	-11.5752
▁약먹	-11.5753
▁쇠	-11.5753
▁한살	-11.5754
쌈	-11.5754
▁면접보	-11.5754
▁끌어내	-11.5755
▁노벨	-11.5755
▁못들어	-11.5755
맑	-11.5755
할지모르겠어요	-11.5755
펠	-11.5756
쿡	-11.5756
▁벤	-11.5756
▁음료	-11.5756
뎃	-11.5756
하셨습니다	-11.5757
떳	-11.5757
▁능지처참	-11.5757
▁아이디어	-11.5757
▁멋쪄	-11.5757
벳	-11.5757
L	-11.5757
곰탕	-11.5758
콕	-11.5758
팝	-11.5758
셨는지	-11.5758
쯧	-11.5758
볶	-11.5758
in	-11.5758
샷	-11.5758
▁소녀	-11.5758
꽝	-11.5758
[	-11.5758
펄	-11.5758
]	-11.5758
삼청교육대	-11.5758
헝	-11.5758
▁고깃집	-11.5758
▁근력운동	-11.5758
▁김우빈	-11.5758
▁깊이	-11.5758
▁나르샤	-11.5758
▁낚시	-11.5758
▁남녀노소	-11.5758
▁눈높이	-11.5758
▁달의연인	-11.5758
▁두꺼운	-11.5758
▁마녀사냥	-11.5758
▁마티즈	-11.5758
▁맥그리거	-11.5758
▁메르켈	-11.5758
▁뭣이중헌디	-11.5758
▁뺑소니	-11.5758
▁스킨십	-11.5758
▁스트레칭	-11.5758
▁시크릿가든	-11.5758
▁실사판	-11.5758
▁심근경색	-11.5758
▁씁니다	-11.5758
▁아르헨	-11.5758
▁아이언맨	-11.5758
▁어벤져스	-11.5758
▁어학연수	-11.5758
▁엎어	-11.5758
▁오죽할까	-11.5758
▁왼손	-11.5758
▁우동사리	-11.5758
▁이모티콘	-11.5758
▁이태곤	-11.5758
▁자진사퇴	-11.5758
▁적화통일	-11.5758
▁주최측	-11.5758
▁초코파이	-11.5758
▁카타르	-11.5758
▁코믹	-11.5758
▁콘돔	-11.5758
▁탄핵부결	-11.5758
▁톱스타	-11.5758
▁펼치	-11.5758
▁하메스	-11.5758
▁홍정호	-11.5758
▁훌륭합니다	-11.5758
롸	-11.5758
빳	-11.5758
슐	-11.5758
웰	-11.5758
즙	-11.5758
툰	-11.5758
퉁	-11.5758
▁EPL	-11.5758
▁EU	-11.5758
▁KBO	-11.5758
▁개쩐다	-11.5758
▁고스톱	-11.5758
▁구자욱	-11.5758
▁국가전복	-11.5758
▁긁어	-11.5758
▁깽판	-11.5758
▁꼰대	-11.5758
▁도둑이	-11.5758
▁뚜껑	-11.5758
▁로켓	-11.5758
▁뭔죄냐	-11.5758
▁슬리피	-11.5758
▁썰전	-11.5758
▁아반떼	-11.5758
▁어메이징	-11.5758
▁엑셀	-11.5758
▁여사친	-11.5758
▁염경엽	-11.5758
▁윤창중	-11.5758
▁이병헌	-11.5758
▁정의구현	-11.5758
▁정주행	-11.5758
▁죄수복	-11.5758
▁트라우마	-11.5758
▁허수아비	-11.5758
▁획득	-11.5758
넴	-11.5758
렛	-11.5758
잦	-11.5758
차세계대전	-11.5758
톨	-11.5758
팥	-11.5758
페미니스트	-11.5758
▁구원파	-11.5758
▁더블유	-11.5758
▁데스노트	-11.5758
▁명백한	-11.5758
▁바람불면	-11.5758
▁산체스	-11.5758
▁손예진	-11.5758
▁신기방기	-11.5758
▁여드름	-11.5758
▁전염병	-11.5758
▁쳐죽일	-11.5758
▁한겨울	-11.5758
얜	-11.5758
▁눈호강	-11.5758
▁머리끄댕이	-11.5758
▁승용차	-11.5758
▁하정우	-11.5758
▁한겨레	-11.5758
단말인가	-11.5758
▁개신교	-11.5758
▁대변인	-11.5758
▁쉐키들	-11.5758
▁스케이터	-11.5758
▁인문계	-11.5758
▁줄넘기	-11.5758
▁진화론	-11.5758
▁화풀이	-11.5758
▁Is	-11.5758
▁꼴갑들	-11.5758
▁전봇대	-11.5758
무작정	-11.5758
입니당	-11.5758
▁개수작	-11.5758
▁립밤	-11.5758
▁유시진	-11.5758
▁화요일이	-11.5758
▁이공계	-11.5758
▁자존감	-11.5758
▁전효성	-11.5758
▁기형아	-11.5758
▁끼리끼리	-11.5758
▁따까리	-11.5758
▁땅콩항공	-11.5758
▁똑같애	-11.5758
▁지석진	-11.5758
▁타이틀	-11.5758
▁대인배	-11.5758
▁유로파	-11.5758
오른쪽	-11.5758
▁궁굼	-11.5758
▁둥글	-11.5758
▁배불리	-11.5758
▁기대기대	-11.5758
▁엘시티	-11.5758
en	-11.5758
▁오재원	-11.5758
▁로우지	-11.5758
▁킬러	-11.5758
▁슈퍼컴퓨터	-11.5758
▁아낌없	-11.5758
▁전지현	-11.5758
▁좌익	-11.5758
▁가성비	-11.5758
외로움	-11.5758
▁지역감정	-11.5758
▁하이패스	-11.5758
▁물고문	-11.5758
▁클롭	-11.5758
te	-11.5758
▁나불대	-11.5759
▁흑흑	-11.5759
▁모자이크	-11.5759
▁비밀리에	-11.5759
▁인건비	-11.5759
▁총출동	-11.5759
휴대용	-11.5759
▁나혼자산다	-11.5759
▁애국보수	-11.5759
▁소녀시대	-11.5759
▁스엠	-11.5759
▁맹박이	-11.5759
▁대기오염	-11.5759
▁신체검사	-11.5759
▁슈가보이	-11.5759
▁유산소	-11.5759
▁소름돋는다	-11.5759
▁훌쩍	-11.5759
▁느껴집니다	-11.5759
▁발가락	-11.5759
신민아	-11.5759
▁이세돌	-11.5759
▁비밀번호	-11.5759
▁혐오스럽다	-11.5759
▁뽕맞	-11.5759
▁열흘	-11.5759
▁쿨한	-11.5759
▁목요일	-11.5759
▁코딱지	-11.5759
ᄏᄏᄐᄐ	-11.5759
▁케이티	-11.5759
▁두려운	-11.5759
▁지겨워	-11.5759
▁배꼽	-11.5759
▁날아오는	-11.5759
▁교훈	-11.5759
▁넘쳐난다	-11.5759
▁배고파서	-11.5759
▁슈감독	-11.5759
▁하얀	-11.5759
▁알아봤다	-11.5759
▁캡쳐	-11.5759
쭈글	-11.5759
▁잡힐	-11.5759
▁사고방식	-11.5759
▁오피셜	-11.5759
▁풀칠하	-11.5759
▁연합뉴스	-11.5759
▁등산복	-11.5759
▁대형사고	-11.5759
▁붉은	-11.5759
▁화가납니다	-11.5759
▁잘라내	-11.5759
▁좌절	-11.5759
▁헤어짐	-11.5759
대박나세요	-11.5759
▁언능	-11.5759
▁톡톡	-11.5759
▁80%	-11.5759
Wh	-11.5759
▁간절한	-11.5759
▁정규직	-11.5759
▁충돌	-11.5759
▁계십니다	-11.5759
▁무턱	-11.5759
▁재현오빠	-11.5759
▁놀람	-11.576
▁레스터	-11.576
▁국익	-11.576
모바일	-11.576
▁그립습니다	-11.576
▁나대지말고	-11.576
▁명박이	-11.576
거덩	-11.576
협회	-11.576
▁이석기	-11.576
▁공직	-11.576
▁대단하시네요	-11.576
▁미성년자	-11.576
▁써봅니다	-11.576
▁지상파	-11.576
▁주댕이	-11.576
▁폭설	-11.576
▁닥터스	-11.576
▁순진한	-11.576
스러웠어요	-11.576
▁몇푼	-11.576
▁작곡	-11.576
▁모자랄	-11.576
▁무고죄	-11.576
▁살려주세요	-11.576
▁척추	-11.576
▁만만세	-11.576
▁이만희	-11.576
▁투잡	-11.576
▁성추행범	-11.576
▁서빙	-11.576
▁피해의식	-11.576
▁치졸	-11.576
▁범죄와의	-11.576
▁폭파	-11.576
▁자칫	-11.576
▁군생활	-11.5761
▁안드로이드	-11.5761
▁국립	-11.5761
▁레벨	-11.5761
▁정신병원에	-11.5761
▁팬클럽	-11.5761
▁혼밥	-11.5761
▁납치	-11.5761
거맞죠	-11.5761
▁김재호	-11.5761
▁강한울	-11.5761
▁처넣어라	-11.5761
▁성과급	-11.5761
▁흘렸	-11.5761
▁구체적	-11.5761
▁기내에서	-11.5761
▁헤어졌어요	-11.5761
▁상태에요	-11.5761
▁문득	-11.5761
▁있습니까	-11.5761
▁40%	-11.5762
▁와이파이	-11.5762
▁잔머리	-11.5762
▁추종자	-11.5762
▁부추기	-11.5762
▁중궈	-11.5762
▁이재진	-11.5762
풍성해	-11.5762
▁안올까요	-11.5762
▁출석	-11.5762
싸이코패스	-11.5762
▁견디	-11.5762
▁그래픽	-11.5762
▁공룡	-11.5762
▁창피하다	-11.5762
▁기뻤	-11.5762
▁좃불	-11.5762
▁요청	-11.5762
▁울컥하네요	-11.5762
▁늙은이가	-11.5762
▁이번기회	-11.5762
베터리	-11.5762
▁종편	-11.5762
▁축하드리구요	-11.5762
쫓아	-11.5762
▁서운하	-11.5762
▁이중성	-11.5762
▁일주일째	-11.5762
▁영광	-11.5762
▁못맞추면	-11.5762
▁될런지	-11.5762
▁쌈자	-11.5762
▁거시기	-11.5763
▁커버	-11.5763
▁목격	-11.5763
▁사이코	-11.5763
▁최우수상	-11.5763
▁강남역	-11.5763
▁바이오	-11.5763
▁뺏길	-11.5763
▁훈련병	-11.5763
▁결재	-11.5763
▁보냈어요	-11.5763
해버렸네	-11.5763
▁심각합니다	-11.5763
▁어찌해야할지	-11.5763
▁50%	-11.5763
▁온라인	-11.5763
▁유흥	-11.5763
▁자궁	-11.5763
디오	-11.5763
▁해결될	-11.5764
▁팔다리	-11.5764
▁기다렸던	-11.5764
▁돼지고기	-11.5764
▁팬택	-11.5764
▁기억난다	-11.5764
▁신세계	-11.5764
퍽이나	-11.5764
▁시간끌기	-11.5764
▁우덜	-11.5764
▁익명	-11.5764
▁부가	-11.5764
▁헌신	-11.5764
민호	-11.5764
▁밥맛	-11.5764
하시나요	-11.5764
▁믿지	-11.5764
▁깨져	-11.5764
▁죽을수도	-11.5764
▁바껴	-11.5765
▁기래기	-11.5765
▁잔재	-11.5765
▁정유년	-11.5765
▁발사하	-11.5765
▁철저하게	-11.5765
▁맞을까요	-11.5765
▁피돌이	-11.5765
▁중립	-11.5765
▁노가다	-11.5765
▁항소	-11.5765
▁결실	-11.5765
▁빼앗기	-11.5765
▁신경쓰여	-11.5765
▁본보기	-11.5765
투쟁	-11.5765
▁나쁨	-11.5765
▁개검찰	-11.5765
▁빙시	-11.5765
▁성관계	-11.5765
▁냅둬라	-11.5766
▁저소득층	-11.5766
▁폼이	-11.5766
▁유해진	-11.5766
엄지척	-11.5766
▁규정	-11.5766
▁결단	-11.5766
▁밝혀졌다	-11.5766
▁채식	-11.5766
▁들린다	-11.5766
▁혜자	-11.5766
▁반환	-11.5766
▁구름	-11.5766
빠지고	-11.5766
▁당황스럽네요	-11.5766
▁병맛	-11.5766
▁생겼습니다	-11.5766
▁맹세	-11.5766
협상	-11.5767
▁갔다온	-11.5767
티비씨	-11.5767
▁서른	-11.5767
▁담당자	-11.5767
▁생태	-11.5767
▁어렸을때	-11.5767
▁실화	-11.5767
▁체감	-11.5767
▁배움	-11.5767
용관이	-11.5767
▁자폭	-11.5767
▁병규형	-11.5767
▁국력	-11.5767
▁김숙	-11.5767
▁은폐	-11.5767
피임약	-11.5767
▁오픽	-11.5768
나부다	-11.5768
▁엠씨	-11.5768
뚜기	-11.5768
착취	-11.5768
▁조항	-11.5768
▁인생드라마	-11.5768
▁가이드	-11.5768
햇습니다	-11.5768
▁처참	-11.5768
▁좋겠음	-11.5768
▁김연아선수	-11.5768
▁총알	-11.5768
▁관심없	-11.5768
▁보람	-11.5768
▁어쩌려고	-11.5768
▁지뢰	-11.5769
▁위염	-11.5769
▁토크	-11.5769
▁알아봐야	-11.5769
ᄀᄀᄀ	-11.5769
▁암울	-11.5769
▁못하겠네요	-11.5769
▁온통	-11.5769
os	-11.5769
이구	-11.5769
▁실체	-11.5769
▁쇼트	-11.5769
▁최종	-11.5769
▁이현승	-11.5769
▁켜놓고	-11.5769
▁나이값	-11.5769
있읍니다	-11.5769
▁좋았습니다	-11.5769
▁채소	-11.5769
▁남북	-11.5769
▁통신비	-11.577
▁자기관리	-11.577
▁해뜨	-11.577
▁맞불	-11.577
▁수도권	-11.577
▁고급진	-11.577
▁제외	-11.577
▁충전할때	-11.577
희준	-11.577
▁유죄	-11.5771
BC	-11.5771
▁이정희	-11.5771
▁가벼	-11.5771
연패	-11.5771
▁개또라이	-11.5771
▁타이거	-11.5771
▁효도	-11.5771
▁벌받	-11.5771
▁마른	-11.5771
▁만나러	-11.5771
▁기어들어	-11.5772
▁자숙	-11.5772
▁우주선	-11.5772
▁사교육	-11.5772
▁우려스럽다	-11.5772
빠질	-11.5772
▁추모	-11.5772
▁멋있습니다	-11.5772
▁발연기	-11.5772
▁살아온	-11.5772
▁싫은데	-11.5772
▁가관이	-11.5772
▁존내	-11.5772
▁바래요	-11.5772
▁주목	-11.5773
▁인간관계	-11.5773
▁상메	-11.5773
▁처음본다	-11.5773
▁몰수해라	-11.5773
▁힘드니	-11.5773
▁잘봤어요	-11.5773
▁각하	-11.5773
▁계시나요	-11.5773
▁무패	-11.5773
조원이	-11.5773
▁쩔었다	-11.5773
bc	-11.5773
▁남다른	-11.5774
▁탈북자	-11.5774
▁추울	-11.5774
넘버	-11.5774
▁코트	-11.5774
▁그러니깐	-11.5774
▁최고였다	-11.5774
▁야메	-11.5774
▁은탁이	-11.5774
▁해병대	-11.5774
▁걸러	-11.5775
▁호평	-11.5775
▁부탁합니다	-11.5775
▁음모	-11.5775
▁안되겠죠	-11.5775
▁귀찮아서	-11.5775
▁단한번	-11.5775
▁식비	-11.5775
▁추방해라	-11.5775
▁쪽팔린다	-11.5775
▁노망	-11.5775
▁치루	-11.5776
▁못쓴다	-11.5776
▁정규	-11.5776
▁김일성	-11.5776
▁가축	-11.5776
▁독립군	-11.5776
▁있더라구요	-11.5776
▁군부대	-11.5776
▁욱일기	-11.5776
▁보이스	-11.5776
▁2030	-11.5777
▁무엇인지	-11.5777
기증	-11.5777
▁시행	-11.5777
▁씨바	-11.5777
만달러	-11.5777
▁이쁨	-11.5777
▁무역	-11.5777
▁군용	-11.5778
▁멈추	-11.5778
▁신속	-11.5778
▁있군	-11.5778
▁별론	-11.5778
▁개구라	-11.5778
▁반값	-11.5778
년넘게	-11.5778
▁야외	-11.5778
▁개부럽다	-11.5778
▁조선소	-11.5778
▁산타	-11.5779
▁충청도	-11.5779
▁마르	-11.5779
▁무선	-11.5779
▁넘쳐나는	-11.5779
▁사법처리	-11.5779
▁읽기	-11.5779
▁안가나요	-11.5779
▁기다릴	-11.578
▁영남	-11.578
▁매미	-11.578
▁소득	-11.578
▁세운	-11.578
▁해볼까	-11.578
▁6000	-11.5781
▁없었음	-11.5781
▁미안함	-11.5781
▁옆으로	-11.5781
▁현제	-11.5781
▁되도록	-11.5781
▁대량	-11.5781
▁입양	-11.5781
▁이영애	-11.5781
줄께	-11.5781
▁공동	-11.5781
▁후예	-11.5781
▁우파	-11.5782
▁최씨	-11.5782
▁고민중입니다	-11.5782
▁기절	-11.5782
▁요세	-11.5782
▁안통하	-11.5782
▁고마웠어요	-11.5782
산이	-11.5782
▁현실적인	-11.5782
▁정상인가요	-11.5783
▁복원	-11.5783
▁따라할수	-11.5783
▁알고싶다	-11.5783
조사결과	-11.5783
▁없더라구요	-11.5783
▁놓치기	-11.5783
▁외면하	-11.5783
▁인정합니다	-11.5783
줄이고	-11.5784
▁미칠것	-11.5784
거같기도하고	-11.5784
▁돈없어서	-11.5784
▁찌그러져	-11.5784
▁볼게요	-11.5784
▁아니어도	-11.5784
▁안된	-11.5785
▁접속	-11.5785
▁이겼	-11.5785
▁곱게	-11.5785
▁이눔	-11.5785
▁어려운데	-11.5785
▁영웅이다	-11.5785
▁망조	-11.5785
▁추월	-11.5785
▁밝혀지면	-11.5786
▁짜장면	-11.5786
▁본방	-11.5786
▁반역자	-11.5786
▁신선	-11.5786
▁재앙이다	-11.5786
▁성병	-11.5786
▁아니였음	-11.5787
▁부담스럽고	-11.5787
봤어	-11.5787
▁여운	-11.5787
▁쓰이는	-11.5787
▁대외	-11.5787
▁즉시	-11.5787
▁감동이네요	-11.5787
▁존경스럽다	-11.5788
▁모르던	-11.5788
▁마지막회	-11.5788
주는척	-11.5788
▁받으실	-11.5788
▁김병	-11.5788
▁일어났	-11.5788
▁논산	-11.5788
케이스	-11.5788
▁나왔으면	-11.5788
여진	-11.5788
▁군대갈	-11.5788
▁발언	-11.5788
▁찾아가면	-11.5789
▁무섭구나	-11.5789
▁증가	-11.5789
▁심보	-11.5789
▁먹먹하	-11.5789
▁수컷	-11.579
▁더나쁜	-11.579
크게	-11.579
리플	-11.579
▁신기하게	-11.579
▁어떨까요	-11.579
▁신기할	-11.579
▁설명좀	-11.579
▁사회생활	-11.5791
하시더라구요	-11.5791
▁태아	-11.5791
웃는모습	-11.5791
▁바뀐다	-11.5792
드러나는	-11.5792
▁몇개월	-11.5792
▁느끼는데	-11.5792
▁쓰세요	-11.5792
되는거지	-11.5792
▁보여주기	-11.5792
▁쓰던	-11.5792
▁두배	-11.5792
▁우선이다	-11.5792
▁해체해라	-11.5792
▁평화롭	-11.5792
▁유린	-11.5792
▁골치	-11.5792
겟는데	-11.5793
▁그라운드	-11.5793
▁우러	-11.5793
▁조또	-11.5793
▁지내다가	-11.5793
▁감량	-11.5794
▁있나보네	-11.5794
▁기아팬이	-11.5794
▁지리네	-11.5794
▁남동생	-11.5795
▁동성애자들	-11.5795
▁시작했	-11.5795
▁오늘밤	-11.5795
▁아기들	-11.5795
패널	-11.5796
▁한두	-11.5796
아이템	-11.5796
복싱	-11.5796
▁매진	-11.5796
▁짓인지	-11.5796
▁예정이	-11.5796
▁귀여운	-11.5796
▁무선충전	-11.5797
▁개헌	-11.5797
▁백번	-11.5797
▁미생	-11.5797
▁괴롭다	-11.5797
▁친중	-11.5797
▁국군	-11.5797
▁살많이	-11.5797
웃겼는데	-11.5797
▁김태리	-11.5798
▁못하더라	-11.5798
떼기	-11.5798
정은	-11.5798
▁깨어	-11.5798
영미	-11.5798
▁동전	-11.5799
▁폭력성	-11.5799
명중	-11.5799
▁미워	-11.5799
▁희생양	-11.5799
▁순천	-11.5799
▁주모	-11.58
▁고민하다가	-11.58
▁네비	-11.58
▁최군	-11.58
▁줄어서	-11.58
▁서용빈	-11.58
▁지었으면	-11.58
산화	-11.58
▁기집	-11.58
▁어이없다	-11.5801
▁놀아라	-11.5801
▁골라서	-11.5801
▁썩어라	-11.5801
▁아시나요	-11.5802
기로했는데	-11.5802
▁내보내라	-11.5802
▁쪽팔리지	-11.5802
나오는거	-11.5802
▁맞음	-11.5802
머신	-11.5802
놔둔	-11.5802
불안하	-11.5803
▁고속	-11.5803
▁끝내야	-11.5803
▁되는건지	-11.5803
▁일한지	-11.5803
▁지칠	-11.5803
설레발치	-11.5803
▁유전	-11.5804
▁붙어서	-11.5804
▁복사	-11.5804
이정도면	-11.5804
▁남산	-11.5804
▁썼냐	-11.5805
▁방법좀	-11.5805
시바	-11.5805
▁온다는	-11.5805
▁어린이집에	-11.5805
▁케어	-11.5805
▁길어	-11.5807
해버리면	-11.5807
▁눈감	-11.5807
▁아쉽네요	-11.5807
잡힌	-11.5807
▁부실	-11.5807
석이	-11.5808
세금이	-11.5808
▁차리지	-11.5808
▁압박감	-11.5808
▁음색	-11.5808
헬스장	-11.5808
협의	-11.5808
▁진품	-11.5809
▁맡아	-11.5809
▁전학	-11.581
▁파마	-11.581
▁꽁	-11.581
▁못하니	-11.581
▁죽었는데	-11.581
▁미드	-11.581
란드	-11.5811
▁삼진	-11.5811
▁중국애들	-11.5811
▁김민	-11.5811
▁얻고	-11.5812
▁감수	-11.5812
▁아니였는데	-11.5813
▁답답하고	-11.5813
▁안되겠네	-11.5813
▁대마도	-11.5813
▁선거때	-11.5814
시켜주세요	-11.5814
▁혜리	-11.5814
▁갈려고	-11.5814
▁백배	-11.5815
▁저러네	-11.5815
▁죽을듯	-11.5815
해주겠다	-11.5815
▁남발	-11.5815
▁똑같은데	-11.5815
▁어린나이	-11.5816
▁사양	-11.5816
들보다	-11.5816
▁심상치	-11.5816
▁김은숙	-11.5816
▁오함마	-11.5816
기부	-11.5816
▁넥슨	-11.5816
▁라인업	-11.5816
버렸으면	-11.5816
▁과징금	-11.5816
▁PC	-11.5817
▁꿇	-11.5817
▁도서정가제	-11.5817
▁즐거운	-11.5817
▁추카드려요	-11.5817
▁축하드리고	-11.5817
▁훗	-11.5817
▁R	-11.5817
▁곰팡이	-11.5817
▁김앤장	-11.5817
▁놋	-11.5817
▁시나리오	-11.5817
▁아스널	-11.5817
▁차승원	-11.5817
▁캭	-11.5817
▁테슬라	-11.5817
▁휘발유	-11.5817
▁시작했는데	-11.5817
▁선남선녀	-11.5817
▁오리발	-11.5817
▁원조	-11.5817
▁짝짝짝	-11.5817
▁극형에	-11.5817
▁무언가	-11.5817
▁앞장서	-11.5817
▁붕괴	-11.5817
▁햄버거	-11.5817
▁허걱	-11.5817
▁사귈	-11.5817
▁광우병	-11.5817
▁없애자	-11.5817
▁클린턴	-11.5817
▁알만하다	-11.5817
▁기름장어	-11.5817
▁6.25	-11.5817
▁골키퍼	-11.5817
▁고릴라	-11.5817
▁어뜨케	-11.5817
▁월세	-11.5817
▁친하게	-11.5817
▁앓	-11.5817
▁그당시	-11.5817
▁소오름	-11.5817
▁압류	-11.5817
▁맛잇	-11.5817
▁안되겠다	-11.5817
▁예쁨	-11.5817
▁서운한	-11.5817
▁데이터	-11.5817
▁쳐맞고	-11.5817
▁소고기	-11.5818
▁감사해유	-11.5818
▁아깝지	-11.5818
▁김경문	-11.5818
▁사형제도	-11.5818
▁말도못하고	-11.5818
기능	-11.5818
▁대단하십니다	-11.5818
▁떨린다	-11.5818
▁하수인	-11.5818
▁대단하시다	-11.5818
▁푸른	-11.5819
▁미용실	-11.5819
▁연아언니	-11.5819
▁직장생활	-11.5819
▁송송	-11.5819
▁패딩	-11.5819
▁조리원	-11.5819
▁큰돈	-11.5819
▁안나와요	-11.5819
▁오염	-11.5819
▁사직	-11.582
▁까발리	-11.582
▁기록이	-11.582
▁수준하고는	-11.582
▁너무많아서	-11.582
했었나	-11.5821
▁365	-11.5821
폼으로	-11.5821
▁쇠고	-11.5822
워크	-11.5822
▁짜르고	-11.5822
▁느껴지네요	-11.5823
▁세전	-11.5823
▁140	-11.5823
▁이러는데	-11.5823
버렸다	-11.5823
▁갖추	-11.5823
▁저항	-11.5823
▁미개하다	-11.5823
▁생각나는데	-11.5823
▁할수있는	-11.5824
▁안좋다고	-11.5824
느님	-11.5824
즈음	-11.5825
▁본색	-11.5825
고싶어서	-11.5825
▁크네	-11.5826
▁로봇팔	-11.5826
▁보여주셔서	-11.5827
▁다털	-11.5827
▁던지면	-11.5827
▁화보	-11.5827
▁용수	-11.5827
▁이뻐요	-11.5827
▁배워서	-11.5827
비디오	-11.5828
▁낳았	-11.5828
▁미용	-11.5828
▁이준	-11.5828
▁기후	-11.5828
▁닭년아	-11.5828
▁올리냐	-11.5828
▁바꿔라	-11.5829
▁없구	-11.5829
더욱	-11.583
▁낳는다	-11.583
▁조국	-11.5831
▁물거품이	-11.5831
▁충격적이네요	-11.5832
▁시작인가	-11.5832
2013	-11.5832
▁그날까지	-11.5832
것두	-11.5832
▁찌질한	-11.5832
▁외쳤	-11.5833
▁감사했습니다	-11.5833
▁55	-11.5833
▁좋구나	-11.5834
냈나	-11.5834
▁나왔네요	-11.5834
~~~!!	-11.5834
▁재산몰수하	-11.5834
▁황당해서	-11.5835
▁큰일났네	-11.5835
▁없구만	-11.5835
불법	-11.5835
▁갇혀있	-11.5835
달아주신	-11.5836
▁저런일이	-11.5836
▁하늘과	-11.5836
▁아니더라도	-11.5836
▁한통속	-11.5836
▁저질러	-11.5836
민재	-11.5836
데서	-11.5837
▁정체가	-11.5837
▁사생	-11.5838
▁쎄게	-11.5838
나왔을때	-11.5838
▁좋은기사	-11.5838
▁대통령직	-11.5838
잔아	-11.5838
▁망친다	-11.5838
앞으로도	-11.5839
막막하	-11.5839
한국인	-11.5839
▁우리모두	-11.5839
취재	-11.5839
봣는데	-11.5839
억정도	-11.5839
봤으니	-11.5839
▁거참	-11.5839
▁그런걸까요	-11.584
하고싶어서	-11.584
었단다	-11.584
▁극과	-11.584
▁똥줄타	-11.584
▁연차	-11.5841
▁으아	-11.5841
파리	-11.5841
▁눈치보고	-11.5841
우세	-11.5841
▁많어	-11.5843
▁늦잠	-11.5843
▁도발	-11.5843
▁그립다	-11.5844
▁어마	-11.5844
▁때려라	-11.5845
▁빨아먹	-11.5845
막고	-11.5845
▁감동입니다	-11.5845
▁들었다	-11.5846
▁안났	-11.5846
생각이든다	-11.5846
▁안옴	-11.5847
입술	-11.5847
▁동해	-11.5847
▁청년들	-11.5848
▁나오는구나	-11.5848
▁대단한거지	-11.5848
▁무기력	-11.5848
▁병원비	-11.5849
▁제법	-11.5849
▁유익한	-11.585
▁여권	-11.585
▁많던데	-11.5851
▁유엔	-11.5851
넘나	-11.5852
▁생각남	-11.5854
▁발열	-11.5855
▁언제적	-11.5856
▁질기	-11.5856
▁사세요	-11.5857
▁팔자	-11.5857
딱딱	-11.5858
▁장수	-11.5858
▁로봇과	-11.5858
▁짱이다	-11.5859
▁평일	-11.5859
▁우울하고	-11.5859
▁자제	-11.586
할일이	-11.586
▁볼만한	-11.5861
▁길가다	-11.5861
▁족치	-11.5861
▁받으시고	-11.5861
▁기생충	-11.5861
▁사형시켜야한다	-11.5863
▁장면이	-11.5863
차원	-11.5863
아이고	-11.5864
▁생각했었	-11.5864
▁위치에	-11.5865
▁소나기	-11.5865
대보험	-11.5865
시오	-11.5865
장으로	-11.5865
할수잇	-11.5865
▁앵	-11.5866
분만에	-11.5867
▁한복	-11.5868
▁몇천	-11.5868
▁출근길	-11.5869
정화	-11.5869
▁어때요	-11.5869
진영이	-11.5869
▁느리	-11.5869
▁돌아가신	-11.5869
▁영감님	-11.587
서글프다	-11.587
태산	-11.5871
▁기다리면	-11.5872
▁중요하지	-11.5872
▁숙제	-11.5873
▁알았더니	-11.5873
▁보험료	-11.5873
▁느꼈	-11.5873
▁하고싶은	-11.5874
▁비우	-11.5874
▁61	-11.5875
세끼	-11.5875
▁추적	-11.5875
삼척	-11.5875
▁당사	-11.5876
깨나	-11.5876
▁데려다	-11.5877
▁찢어지는	-11.5877
▁어쩌지	-11.5879
▁두꺼워	-11.5879
▁개똥같은	-11.5879
고등학생이	-11.5879
▁설리	-11.588
▁안했음	-11.588
계약직	-11.5881
▁안될것같	-11.5881
▁있을텐데	-11.5881
▁판단력	-11.5881
▁해도해도	-11.5882
보겠다고	-11.5882
보였는데	-11.5882
▁잡스	-11.5882
▁고장나	-11.5883
작동	-11.5883
▁작정을	-11.5883
▁부천	-11.5884
전사들	-11.5884
휴가	-11.5884
태우	-11.5885
백명	-11.5885
▁보수냐	-11.5885
▁난리냐	-11.5885
어뜩	-11.5886
▁퍼다	-11.5886
▁지켜보고	-11.5886
▁빛을	-11.5887
▁앞이	-11.5887
▁닥쳐	-11.5888
▁일반국민들	-11.5888
▁다했지	-11.5888
▁날아	-11.5888
▁실내	-11.5888
▁깜빡이	-11.5889
▁임창정이	-11.5889
전역	-11.5891
▁이기야	-11.5891
▁해피	-11.5891
▁빠졌	-11.5892
복무	-11.5893
▁딴거	-11.5893
▁정력	-11.5894
▁슬프고	-11.5896
▁토욜	-11.5896
▁무서울	-11.5897
▁물어보고	-11.5898
그럴까요	-11.5898
▁좋아할까요	-11.5898
이니라	-11.5898
▁무겁고	-11.5899
마귀	-11.5899
치즈	-11.5899
▁짤리고	-11.5899
▁시작이다	-11.59
▁비싸서	-11.5901
▁멋있게	-11.5902
▁아깝고	-11.5902
차전	-11.5902
▁올인	-11.5905
▁학살하	-11.5905
원에	-11.5905
▁무뇌	-11.5905
▁정치하는	-11.5906
▁자진	-11.5906
▁자국을	-11.5906
▁찔	-11.5906
▁느껴지지	-11.5907
올까	-11.5907
율이	-11.5907
자살	-11.5907
▁ᅳᅳᅳᅳ	-11.5909
▁개천	-11.5909
▁저러고	-11.591
▁맞이하	-11.591
▁왕자	-11.591
▁있었다는	-11.5911
▁부상당	-11.5912
전은	-11.5912
▁븅	-11.5912
▁이런건가요	-11.5913
▁아이한테	-11.5913
호호	-11.5914
▁빤	-11.5914
한답	-11.5914
▁추천해주	-11.5914
▁도와준	-11.5915
읽다가	-11.5916
통보	-11.5916
▁혈압	-11.5917
지킨	-11.5917
▁안본다	-11.5917
▁회장님이	-11.5917
▁늦었	-11.5917
햇음	-11.5918
▁늘어	-11.5918
▁뜬	-11.5918
바짝	-11.5918
▁펀치	-11.5918
▁쎈	-11.5918
▁프리미엄	-11.5918
▁삿	-11.5918
▁승무원	-11.5918
▁시킵시다	-11.5918
▁팁	-11.5918
▁프런트	-11.5918
▁여고생	-11.5918
▁코메디	-11.5918
▁김사부	-11.5918
▁일제강점기	-11.5918
▁일으키	-11.5918
▁앤	-11.5918
▁셋째	-11.5918
▁떨어뜨	-11.5918
▁염색	-11.5919
▁전경련	-11.5919
▁족쳐야	-11.5919
▁망한다고	-11.592
▁고구마	-11.592
▁기회주의자	-11.592
랄까	-11.592
▁젠장	-11.592
▁치는데	-11.592
▁원칙	-11.592
▁존재자체	-11.592
oa	-11.592
창단	-11.592
▁시작했다	-11.5921
▁가겠네	-11.5921
써봐라	-11.5921
▁꺼지고	-11.5922
▁말밖에	-11.5922
▁돈많이	-11.5922
걱정이예요	-11.5923
달째	-11.5923
▁머리아프	-11.5924
▁해줘	-11.5924
▁돌았나	-11.5924
▁뭘까요	-11.5924
▁성숙	-11.5925
▁특정	-11.5925
받으려고	-11.5925
▁됬어요	-11.5925
▁아가리를	-11.5925
▁됐습니다	-11.5925
▁행진	-11.5926
▁장갑	-11.5926
덕후	-11.5926
▁반갑습니다	-11.5926
욕을	-11.5927
▁형량	-11.5927
▁없었어	-11.5927
▁청산	-11.5927
^~	-11.5928
▁컴	-11.5928
▁못찾	-11.5928
▁이랬	-11.5928
▁재현	-11.5928
▁요요	-11.5929
넘어간	-11.5929
▁차례	-11.5929
많지만	-11.5929
▁놀랍지	-11.593
마칠	-11.593
▁알았네요	-11.593
▁출장가	-11.5931
▁슬금	-11.5931
▁왕조	-11.5931
▁분해	-11.5932
▁원작	-11.5932
▁방식	-11.5932
문서	-11.5933
▁요상	-11.5933
▁분열	-11.5933
▁낭비	-11.5933
▁응원해요	-11.5933
▁난리야	-11.5933
공주	-11.5934
▁마크	-11.5934
부탁해요	-11.5934
▁몇분	-11.5934
▁되겠군	-11.5936
▁설정	-11.5936
▁안했	-11.5937
▁입증	-11.5937
괜찮은가요	-11.5938
있을려나	-11.5939
▁얼음	-11.594
▁놓아	-11.5941
▁소재	-11.5941
▁의인	-11.5942
▁아내분	-11.5943
▁화재	-11.5943
▁김해	-11.5945
▁지대로	-11.5945
▁검색어	-11.5945
▁처맞고	-11.5945
▁잡아먹	-11.5946
▁싸물	-11.5946
▁연락하면	-11.5946
▁방법으로	-11.5947
▁이러니까	-11.5948
▁법인	-11.5949
▁좋았는데	-11.595
▁쪄	-11.595
▁만나요	-11.5951
▁치아	-11.5951
독점	-11.5951
쳐주나	-11.5952
▁물고기	-11.5952
얘기가	-11.5952
▁안쓴다	-11.5953
▁들었습니다	-11.5953
▁조금이	-11.5953
▁남자쪽에	-11.5954
▁싸인	-11.5954
▁괜찮을거	-11.5956
▁능력자	-11.5958
▁세금내고	-11.5958
▁간장	-11.5958
끄는	-11.5958
▁죽이고싶	-11.5959
기자가	-11.5959
▁개소리야	-11.5959
▁끝도없	-11.596
▁담주에	-11.5961
▁이런곳	-11.5962
▁있었다니	-11.5962
▁받아요	-11.5963
재료	-11.5963
▁없는건	-11.5964
▁이청	-11.5964
▁쓰라고	-11.5964
추고	-11.5966
▁작전	-11.5966
▁덴마크에	-11.5966
▁법치	-11.5966
▁42	-11.5967
▁뺏어	-11.5968
▁있도록	-11.5968
▁달라서	-11.5968
▁곳이다	-11.5968
▁잘못이다	-11.5968
▁읍	-11.5968
▁봤을때	-11.5969
▁심해지	-11.5969
올때까지	-11.5969
▁하기싫	-11.5969
▁못하겠고	-11.597
▁우리집에서	-11.597
▁지디	-11.597
▁반갑고	-11.597
▁기권	-11.597
쳤다	-11.5971
임신중에	-11.5971
▁인정한다	-11.5971
상대	-11.5972
▁못받고	-11.5972
그때	-11.5972
내놔라	-11.5972
▁잇을까요	-11.5972
줄아네	-11.5973
출루	-11.5973
▁제발좀	-11.5973
▁슈가	-11.5974
▁아우라	-11.5974
청정	-11.5975
▁조용한	-11.5975
▁다닌	-11.5976
▁그네야	-11.5978
▁됐어	-11.5978
▁이쁘게	-11.5979
▁빡쳐	-11.598
▁어이없	-11.5981
▁뿐입니다	-11.5981
▁찍어준	-11.5981
▁구성	-11.5982
▁계신다	-11.5982
▁인간들아	-11.5983
▁이쁜애들	-11.5983
▁된것	-11.5986
▁돈줄	-11.5986
▁암덩어리	-11.5986
년전에	-11.5987
▁팬입니다	-11.5987
▁통신사들	-11.5987
▁강대국	-11.5988
▁춥다	-11.5988
시름	-11.5989
▁계약서	-11.5989
▁에너지가	-11.599
▁세명	-11.5991
▁해먹고	-11.5991
많더라구요	-11.5991
▁댓가	-11.5991
▁틀림없	-11.5993
▁날이네요	-11.5994
▁고민임	-11.5995
▁찾기	-11.5995
er	-11.5995
해요ᅲ	-11.5996
통사	-11.5996
▁고수	-11.5996
▁털릴	-11.5996
고싶어	-11.5997
▁사진인줄	-11.5997
▁백주부	-11.5998
경기가	-11.5999
▁대단하신	-11.5999
없으니	-11.6
했구요	-11.6001
▁인터넷에서	-11.6001
▁강사	-11.6002
ᄒᄒᄒᄒᄒᄒᄒ	-11.6002
망이	-11.6002
▁사라지지	-11.6002
랄을	-11.6002
▁위험한데	-11.6003
▁인간아	-11.6005
가야지	-11.6005
▁망한다는	-11.6005
▁자신감을	-11.6006
실때	-11.6006
슈트	-11.6007
수당	-11.601
재용	-11.601
▁있기	-11.6011
▁부러워서	-11.6011
▁경리	-11.6011
저히	-11.6011
▁아니군	-11.6011
▁뜯	-11.6012
▁신임	-11.6013
접어라	-11.6015
▁됐지	-11.6015
해줘	-11.6017
▁깨질	-11.6017
▁그놈의	-11.6018
▁팽	-11.6018
▁국가와	-11.6018
▁가슴속	-11.6019
▁텐데	-11.6019
▁생각해라	-11.6019
고민이예요	-11.602
▁지우고	-11.602
배포	-11.602
급으로	-11.6021
▁결혼하기	-11.6021
▁듀	-11.6021
뒤엔	-11.6022
▁음식이	-11.6022
ea	-11.6022
▁해야되나	-11.6022
▁잡아라	-11.6023
▁><	-11.6023
▁답장을	-11.6023
▁뱀	-11.6023
▁피시방	-11.6023
내려도	-11.6023
▁마케팅	-11.6024
▁뿔	-11.6024
▁정계	-11.6024
▁어떻하죠	-11.6024
진듯	-11.6024
▁응원할께요	-11.6025
▁코리아	-11.6025
너무힘들어서	-11.6025
▁밝혀지	-11.6026
였구만	-11.6026
▁사드를	-11.6027
▁스케일이	-11.6027
▁쳐묵	-11.6027
▁따라다니	-11.6028
추가	-11.6028
▁출발	-11.6029
▁되는건가요	-11.6029
▁억대	-11.6031
▁이상훈	-11.6031
▁남았는데	-11.6032
▁이럴수가	-11.6032
▁너나	-11.6032
▁카더라	-11.6032
▁인력	-11.6033
▁거주	-11.6033
▁보물	-11.6033
▁젤로	-11.6033
터보	-11.6034
▁회원님	-11.6034
▁저렇게까지	-11.6034
어디있냐	-11.6035
▁브라질이	-11.6036
▁소시	-11.6037
▁한편	-11.6038
▁곰	-11.6038
▁들어오는	-11.6038
▁다르지	-11.6038
▁폭력이	-11.6039
▁냔	-11.6039
▁여성분들	-11.6039
▁헬지	-11.604
▁못고치	-11.6042
▁전해라	-11.6042
▁죽겠네요	-11.6043
파크	-11.6043
▁더많이	-11.6044
▁무릎을	-11.6045
▁말이지	-11.6046
▁압	-11.6048
▁가족들이	-11.6048
우리가	-11.6049
▁이나라에	-11.6049
▁힘든게	-11.6051
▁자극	-11.6051
▁우리땅	-11.6052
▁못했어요	-11.6052
▁되는거냐	-11.6053
▁물가가	-11.6053
▁안내고	-11.6053
이었네	-11.6054
명동	-11.6054
▁F	-11.6055
▁동원	-11.6056
▁따듯	-11.6056
▁나라인가	-11.6057
▁데뷔한	-11.6058
▁침수차	-11.6059
바쳐	-11.606
▁않으려	-11.606
▁영향이	-11.6061
참고	-11.6061
▁모야	-11.6061
복많이	-11.6062
▁재단	-11.6062
똑바로해라	-11.6062
▁먹지	-11.6063
이었어요	-11.6063
▁세상에나	-11.6063
▁누구랑	-11.6063
하지않았나	-11.6063
점에	-11.6064
트가	-11.6064
▁고용	-11.6065
▁나오는건	-11.6065
네요ᅮᅮ	-11.6065
▁웃기고	-11.6065
인사	-11.6066
▁얻었	-11.6066
▁나올듯	-11.6067
▁골로	-11.6067
▁부럽고	-11.6068
좀해라	-11.6068
▁유발	-11.6068
▁망상	-11.6068
▁이정도로	-11.6069
리랑	-11.6069
▁못본다	-11.6069
▁까네	-11.6071
▁남는	-11.6071
▁짜르	-11.6072
▁열악한	-11.6072
▁바빠서	-11.6072
▁진리	-11.6074
▁파란집	-11.6074
힘이	-11.6075
▁닭과	-11.6075
▁눈물난다	-11.6076
▁살어	-11.6076
▁나와라	-11.6076
▁있어라	-11.6077
▁각이다	-11.6078
▁기미	-11.608
새끼들아	-11.6081
종말이	-11.6081
할수없는	-11.6081
▁히히	-11.6083
▁투표로	-11.6083
▁이토	-11.6084
보상	-11.6086
▁세월호때	-11.6087
▁일인가요	-11.6088
대교	-11.6093
▁낳아	-11.6093
부추	-11.6093
▁뽑지	-11.6094
▁잇나	-11.6094
▁영혼이	-11.6095
▁내놓	-11.6097
▁아프다고	-11.6097
개가	-11.6097
▁애엄마	-11.6098
▁당신들이	-11.6101
▁밖으로	-11.6101
▁아픈데	-11.6102
ᄏᄃ	-11.6102
▁저지르	-11.6103
줬다	-11.6105
▁멍청이들	-11.6106
▁전수	-11.6106
▁미안하다고	-11.6107
▁잘하네요	-11.611
올해	-11.6112
▁힘들지만	-11.6112
하시는모습	-11.6113
▁안오면	-11.6113
할껄	-11.6116
리네요	-11.6116
▁싶어서요	-11.6118
▁뉴	-11.6118
▁눈물만	-11.6118
▁해야할듯	-11.6118
▁과학자들	-11.612
▁대표하	-11.612
▁위다	-11.6121
가야할까요	-11.6121
▁아씨	-11.6122
가는길	-11.6122
▁한남들	-11.6123
▁상태가	-11.6123
준형	-11.6124
▁컵	-11.6125
햇던	-11.6127
▁달리는	-11.6128
▁사람들한테	-11.6128
▁애들아	-11.6129
▁뒤집어지	-11.6129
▁도니오빠	-11.613
▁장애	-11.6133
▁들어가야	-11.6133
이나해라	-11.6135
▁살인에	-11.6135
▁바퀴	-11.6135
▁간판	-11.6135
▁후들	-11.6135
▁연락왔	-11.6136
▁안물	-11.6136
▁아무일	-11.6137
▁과거에	-11.6137
▁기분나	-11.6137
▁ᄃᄃᄃᄃᄃᄃ	-11.6138
박근혜는	-11.6138
초가	-11.6141
▁특검에	-11.6141
▁색기들	-11.6142
올려	-11.6142
박근혜가	-11.6142
▁하시나요	-11.6142
▁주름	-11.6143
▁했는데도	-11.6144
▁누님	-11.6145
갈비	-11.6146
▁안쓰고	-11.6147
할려나	-11.6148
들이여	-11.6149
▁한시	-11.6152
먹엇	-11.6152
▁셈	-11.6154
▁구역	-11.6156
▁외워	-11.6156
▁누리	-11.6156
▁돈좀	-11.6158
벌을	-11.6158
▁잡으려	-11.6158
기사에	-11.616
▁오다니	-11.616
▁겁도	-11.6161
▁줘야지	-11.6161
않기를	-11.6161
▁눈치보	-11.6162
▁귀에	-11.6162
쪽팔리	-11.6162
▁김여사들	-11.6163
▁앉아있	-11.6164
▁두들	-11.6164
▁짓이	-11.6166
▁무시한	-11.6168
▁메일	-11.6168
ᅲᅲᅲᅲᅲᅲᅲᅲᅲᅲ	-11.617
▁이정	-11.617
그런거	-11.617
못한거죠	-11.6171
▁직종	-11.6172
▁잃은	-11.6173
~~~~~~~~~~	-11.6174
었는데요	-11.6174
▁초월하는	-11.6175
남은건	-11.6175
청아	-11.6175
▁올지	-11.6176
단계	-11.6178
▁잊은	-11.6178
▁전여자친구	-11.618
드는데	-11.618
▁미인	-11.6181
▁마시	-11.6182
소장	-11.6182
터져	-11.6189
▁남아도	-11.6192
▁야한	-11.6192
▁일병	-11.6194
▁외모에	-11.6194
▁집사	-11.6196
▁별짓	-11.6196
▁재밌다	-11.6198
▁왔으면	-11.6198
▁김고은이	-11.62
세로	-11.6201
고싶어요	-11.6202
나보지	-11.6204
어디가	-11.6205
모집	-11.6205
▁일자리가	-11.6207
▁앱등이들	-11.6208
같을	-11.6208
▁맞다고	-11.6209
▁어이가없네	-11.6209
상으로	-11.6211
보낼수	-11.6213
▁뭐시	-11.6215
▁삥뜯어	-11.6215
▁못해요	-11.6216
▁현아	-11.6217
▁누구야	-11.6219
▁받았습니다	-11.6219
▁있어서요	-11.6219
사는데	-11.622
▁대통령이라고	-11.622
▁미소가	-11.6222
▁이원석이	-11.6222
▁식은	-11.6223
는사람이	-11.6224
▁부자들	-11.6224
▁받았는데	-11.6225
▁보내게	-11.6227
▁잘만	-11.6227
▁노력한	-11.6227
▁바람에	-11.6228
▁구질구질하	-11.6229
어째	-11.623
▁무서	-11.6231
▁내린	-11.6231
▁침묵하	-11.6232
미리	-11.6233
▁거리가	-11.6234
▁서민은	-11.6235
벗어라	-11.6236
사랑을	-11.6238
▁므	-11.624
▁느낌이다	-11.624
▁보라	-11.624
을만한	-11.6241
▁탄핵반대	-11.6241
부가	-11.6241
▁안와서	-11.6242
09	-11.6243
▁못했는데	-11.6245
▁C	-11.6245
역할	-11.6245
정으로	-11.6246
▁후손이	-11.6246
▁없던	-11.6247
▁ᄍᄍᄍᄍ	-11.6248
▁사이가	-11.6248
▁인격이	-11.6249
▁간다면	-11.6251
업자	-11.6251
▁전용	-11.6252
반영	-11.6257
▁손님도	-11.6257
눈뜨면	-11.6258
왜저래	-11.6258
▁저들이	-11.6259
▁공연	-11.6261
▁읽어보	-11.6261
▁후회되	-11.6265
▁박근혜에게	-11.6266
▁내는	-11.6269
▁잘한거	-11.6269
가량	-11.6269
▁시킨다	-11.6269
걸려요	-11.627
얼마정도	-11.627
▁놀았	-11.6272
▁사라질	-11.6273
▁겁나게	-11.6275
실에서	-11.6275
해주지	-11.6276
▁안일어	-11.6278
해봐야	-11.6279
▁말아먹을	-11.628
관님들	-11.628
오프	-11.6282
▁팬들을	-11.6283
▁끝났어	-11.6283
정돈	-11.6284
무지	-11.6287
병장	-11.6288
▁자금	-11.6288
되는건가	-11.629
▁날도	-11.6291
▁조윤선은	-11.6292
▁목을	-11.6293
할거라고	-11.6293
소비자를	-11.6293
▁판다는	-11.6295
▁가든	-11.6296
▁시간대	-11.6296
▁있으신분	-11.6296
해야될까요	-11.6297
▁반할	-11.6299
▁싫어지	-11.6299
▁먹음	-11.63
▁과일	-11.6301
▁해주지	-11.6303
▁틀어야	-11.6303
▁이대은	-11.6303
먹고싶	-11.6304
받고싶	-11.6304
▁죽지	-11.6304
한답니다	-11.6305
▁소리하고	-11.6305
▁나같은	-11.6306
▁안되겠	-11.6306
딴식으로	-11.6307
너는	-11.6307
▁끝에	-11.6308
▁이어가	-11.6308
▁사겼	-11.6309
▁불안해지	-11.631
▁팔아먹은	-11.631
▁먹다	-11.6312
▁챙기는	-11.6313
어야할	-11.6314
▁저차	-11.6314
▁잊지못	-11.6315
있을까봐	-11.6315
▁셋이	-11.6318
▁또래	-11.6318
▁악마같은	-11.6318
▁사용하는	-11.632
▁중국한테	-11.632
겠구먼	-11.6321
▁새키들	-11.6321
▁한계	-11.6323
▁만에	-11.6323
버리지	-11.6325
▁엣지	-11.6326
▁기어나	-11.6329
▁풀고	-11.633
▁베가	-11.633
바바	-11.6331
내에서	-11.6331
▁ᄑᄒᄒ	-11.6332
▁인터넷에	-11.6332
소감	-11.6333
▁범죄자들	-11.6334
▁미개하	-11.6334
할만큼	-11.6335
동성	-11.6339
까지만해도	-11.634
▁똑같은거	-11.634
▁비참한	-11.634
▁떴	-11.6342
위치	-11.6344
▁깐	-11.6344
▁구하고	-11.6345
▁주거	-11.6346
▁답답해	-11.6347
▁함성	-11.6348
▁붓는	-11.6348
▁못합니다	-11.6348
▁못한다고	-11.6349
▁댈	-11.6349
▁띠	-11.6349
만들려고	-11.6351
▁시키지	-11.6351
테니까	-11.6353
▁싶어도	-11.6353
▁할거다	-11.6354
운거	-11.6355
▁상당	-11.6355
베스	-11.6356
먹었나	-11.6357
▁이슬람이	-11.6358
강조	-11.6359
▁상사	-11.6362
▁미국놈들	-11.6363
▁어디든	-11.6364
대중	-11.6366
키스	-11.6371
▁은퇴한다	-11.6371
▁제남자친구	-11.6371
▁안한	-11.6371
▁가격에	-11.6373
많으시	-11.6376
▁잘못한것	-11.6376
▁단단	-11.6377
▁편지가	-11.6377
▁들어오게	-11.6378
▁했다면	-11.6378
▁신뢰도	-11.6379
▁겁니까	-11.6379
보시고	-11.638
▁무게	-11.6381
때려	-11.6382
▁무당년	-11.6382
▁못한게	-11.6382
보고싶은데	-11.6383
▁트럼프야	-11.6384
빠는	-11.6385
▁죽을지	-11.6385
비치	-11.6386
▁없더라	-11.6387
▁잘만들	-11.6387
▁오르는	-11.6389
▁피자	-11.6392
되는줄	-11.6393
들었네요	-11.6396
▁흔들어	-11.6397
▁낳은	-11.6397
대행	-11.6397
여생	-11.6399
필히	-11.6401
대냐	-11.6401
만나면	-11.6402
▁찾아내	-11.6402
유산	-11.6403
▁이래요	-11.6404
개부럽	-11.6405
해도된다	-11.6411
있네요	-11.6413
▁정권에	-11.6413
▁웃으면서	-11.6415
벌이	-11.6419
팀의	-11.6419
▁시켰다	-11.6421
저만	-11.6423
▁제거	-11.6423
▁있으시	-11.6425
급식	-11.6426
기업들	-11.6428
▁강자	-11.643
▁오니	-11.6431
▁발전이	-11.6432
▁볼게	-11.6432
▁보내자	-11.6432
▁갈기	-11.644
▁집회에	-11.6441
▁우겨	-11.6442
▁유치	-11.6443
연기도	-11.6445
▁보호하는	-11.6445
▁한거야	-11.6446
▁메이	-11.6446
기간에	-11.6447
▁정부야	-11.6449
장군	-11.6451
▁이번일	-11.6453
▁광주는	-11.6455
▁하시네요	-11.6456
▁보여주면	-11.6456
▁노래방	-11.646
▁열나	-11.6463
아부지	-11.6464
▁숨어	-11.6465
여주는	-11.6471
을지도	-11.6471
▁큰소리	-11.6472
렵니	-11.6476
았으면	-11.6476
오겠죠	-11.6478
보던	-11.6479
하는사람들	-11.6479
▁담에	-11.6479
▁음식에	-11.648
▁안가도	-11.6481
다시는	-11.6485
▁갱	-11.6487
▁승부	-11.6489
▁헬조선이	-11.6492
▁넣을	-11.6492
안에서	-11.6493
▁골을	-11.6496
식도	-11.6496
▁싸지	-11.6498
봤으면	-11.6499
한거다	-11.6499
여야	-11.6501
▁재미가	-11.6501
사장님이	-11.6501
정성	-11.6505
▁반박	-11.6506
▁안만나	-11.6506
년일세	-11.6508
디다	-11.6508
것임	-11.6509
칠거	-11.6509
▁아니였다	-11.651
▁가네요	-11.6512
사람들만	-11.6516
▁한국정부	-11.6519
▁머릿속에	-11.652
▁실은	-11.652
▁고민하고	-11.6522
▁하는짓	-11.6524
▁하셔서	-11.6527
만난다	-11.6527
해주신분들	-11.6528
더더	-11.6529
나오고	-11.6529
▁잡혀가	-11.653
▁년아	-11.653
해준게	-11.6531
몸살	-11.6532
▁당해도	-11.6532
어요ᅲᅲ	-11.6532
▁이땅에	-11.6534
▁올라오는	-11.6535
▁죽여도	-11.6535
락이	-11.6536
▁접어야	-11.6537
친구들도	-11.6538
▁끝난다	-11.6538
드네요	-11.6539
▁두사람	-11.654
▁보내주	-11.6541
▁시킬	-11.6541
여ᅲ	-11.6542
▁호수	-11.6543
▁위에서	-11.6544
▁탐	-11.6544
▁대위	-11.6545
▁흔적	-11.6545
▁말이냐	-11.6545
▁힐링이	-11.6546
▁따라가	-11.6546
▁갈라	-11.6547
간호사가	-11.655
올린	-11.655
살고	-11.6552
주라	-11.6552
녀석이	-11.6553
들으면서	-11.6553
▁고민요	-11.6556
▁혈	-11.6557
남자들	-11.6558
▁사귀어	-11.6558
▁하시는데	-11.656
▁신인들	-11.6561
▁액	-11.6563
▁여자와	-11.6563
장한	-11.6564
▁물이	-11.6564
비에	-11.6566
▁나왓	-11.6567
▁처지	-11.6567
▁지구에	-11.6569
보려구요	-11.657
▁잡는다	-11.6572
▁먹자	-11.6572
▁실명	-11.6573
▁네이버에	-11.6575
▁보내라	-11.6575
▁품	-11.6576
말지	-11.6576
무섭네	-11.6576
거라며	-11.6577
이지요	-11.6578
주고싶은데	-11.6579
할거면	-11.6582
되었는데	-11.6583
▁핸드폰이	-11.6587
▁몬	-11.6588
▁년놈들	-11.6588
▁올려줘	-11.659
▁크리	-11.6593
지않음	-11.6594
먹는거	-11.6597
▁선동당	-11.66
졌고	-11.6606
▁속아	-11.6607
심사	-11.6608
▁찜찜	-11.6609
▁소나	-11.6609
▁끼들	-11.661
▁존경해	-11.661
넘어	-11.6612
▁중단하	-11.6613
▁안보이는	-11.6614
▁몇주	-11.6614
▁삼성아	-11.6615
▁생각한	-11.6622
▁놈들아	-11.6622
사에서	-11.6625
▁생각안	-11.6628
▁모시	-11.6628
▁지루	-11.6629
▁당연하다	-11.663
하는거보니	-11.6632
▁전세	-11.6632
▁사람이야	-11.6633
▁태극기는	-11.6633
▁원전	-11.6636
먹을	-11.6636
▁등장하	-11.6638
한나라의	-11.6638
뭔가	-11.6639
주년이	-11.664
▁정이	-11.6642
기대를	-11.6647
시는데	-11.6647
▁잘못됐	-11.6654
강도	-11.6657
갔어요	-11.6657
▁보이는건	-11.666
▁이야기가	-11.666
놨네	-11.6663
▁애기가	-11.6664
^^~~	-11.6667
심한거	-11.6667
먹구	-11.6669
▁고지	-11.6673
▁패기	-11.6674
뭐가	-11.6675
일부터	-11.6676
▁통신	-11.6677
▁내라고	-11.6677
▁고민되	-11.6679
▁밖에나가	-11.6684
봣	-11.6687
▁어린이	-11.669
▁킹	-11.6692
선동이	-11.6693
▁지금이나	-11.6693
ᄐ	-11.6694
지만서도	-11.6696
▁불타	-11.6697
▁이유없	-11.6697
동기	-11.6697
▁뒤져	-11.6698
돈있으면	-11.6698
▁드물다	-11.6699
진이	-11.67
▁다치	-11.6701
▁떠난다	-11.6701
▁나란	-11.6701
▁이미지가	-11.6701
▁팔아먹을	-11.6703
▁모델이	-11.6707
한다던데	-11.6708
보여주는	-11.6708
▁올려요	-11.6708
▁김성근감독	-11.6712
어떻게해야되	-11.6717
됐네요	-11.6719
▁좋지않	-11.672
▁사진으로	-11.672
바르	-11.672
▁저러는	-11.6722
▁박영	-11.6722
백만이	-11.6723
▁솔	-11.6724
▁환상	-11.6726
차트	-11.6729
영철	-11.6733
▁폐기물	-11.6736
손이	-11.6736
▁개보다	-11.6737
▁한건가	-11.6738
▁헤어지기	-11.674
그렇다는데	-11.6741
▁연구비	-11.6743
지켜야	-11.6746
배가	-11.6747
▁국제적	-11.6748
▁저러는거	-11.6748
▁노력을	-11.675
▁옵니다	-11.6755
▁김성	-11.6763
▁그랬다	-11.6766
▁적극적	-11.6766
우주	-11.6767
▁마땅하	-11.6769
▁가둬	-11.677
할건데	-11.6771
▁옳다	-11.6772
이신	-11.6773
내기	-11.6773
▁쳐라	-11.6779
▁임신을	-11.6781
▁신들	-11.6784
침해	-11.6788
▁창피할	-11.6793
▁말씀드려야	-11.6794
▁없다면	-11.6795
▁만든게	-11.6796
하길래	-11.6797
▁비율	-11.6798
▁내지	-11.6799
▁순시리가	-11.6799
세면	-11.68
▁있음을	-11.6805
▁안드	-11.6806
▁형식	-11.6811
겠군요	-11.6814
입장에	-11.6815
봤다	-11.6816
!^^	-11.6816
즐거움을	-11.6816
▁반지	-11.6817
한다니	-11.6817
안해	-11.6818
▁도시	-11.6821
▁말할수	-11.6821
▁날리	-11.6821
▁절대안	-11.6822
▁충분하	-11.6824
▁머저리	-11.6831
▁자빠졌	-11.6831
▁끊어	-11.6833
▁죽자	-11.6833
방이	-11.6835
할걸	-11.6836
경이	-11.6843
조아요	-11.6843
정권때	-11.6843
친구랑	-11.6844
하더니만	-11.6846
빠들이	-11.6848
▁논란이	-11.6848
▁핀	-11.6848
씨랑	-11.685
▁뜨나	-11.6851
▁남겨주	-11.6853
리만	-11.6856
▁잊을	-11.6859
▁겟	-11.6866
만들었는데	-11.6867
▁이긴	-11.6869
줄듯	-11.687
갈아	-11.6874
▁원수	-11.6875
과거	-11.6876
▁보라고	-11.6876
▁탑이	-11.688
생각해	-11.6881
주제	-11.6884
▁생기고	-11.6889
▁장착	-11.689
▁사랑했	-11.689
▁반바지	-11.689
충이	-11.6891
▁불안불안	-11.6891
한거야	-11.6893
할것같은데	-11.6893
▁업적	-11.6893
▁p	-11.6896
급한	-11.6897
▁비법	-11.6901
▁이여자	-11.6905
▁백수들	-11.6909
▁원한다	-11.6909
▁통화하	-11.6912
sp	-11.6914
시간씩	-11.6914
▁심각한거	-11.6915
▁역사적	-11.6915
지용	-11.6916
▁할거면	-11.6918
▁놀이	-11.692
나갈	-11.6921
▁물속에	-11.6922
▁봐야할	-11.6922
분들께	-11.6922
▁친절하	-11.6922
▁기대되	-11.693
야된다	-11.6931
▁재밋어	-11.6931
▁보수가	-11.6934
▁장난하나	-11.6936
것냐	-11.6937
▁속으로	-11.6938
하는사람이	-11.694
▁차였	-11.6941
진아	-11.6942
흘러	-11.6945
▁이러한	-11.6945
▁올려야	-11.6946
분에	-11.6948
예상은	-11.6951
▁나대	-11.6952
▁증거는	-11.6952
몰랐는데	-11.6954
봤지만	-11.6955
간지	-11.6955
▁등신	-11.6956
▁탈출	-11.696
▁고생하시	-11.6962
▁뭐다	-11.6963
상실	-11.6964
과목	-11.6964
드립치	-11.6964
이길	-11.6966
애라	-11.6967
▁표기	-11.6967
▁하지도	-11.6968
복입고	-11.6968
거면서	-11.6968
감방	-11.697
말리	-11.6973
▁허무	-11.6977
고싶고	-11.6978
▁나이많	-11.6979
받어	-11.6981
▁심한가	-11.6984
▁틀딱이	-11.6985
이팅	-11.6986
▁♥	-11.6987
▁가르쳐줘	-11.6991
▁뭉클	-11.6993
걸어	-11.6997
▁시즌에	-11.6998
▁불의	-11.6998
▁지져	-11.7
▁레이	-11.701
▁원하는건	-11.7013
꼴리	-11.7015
보아	-11.7016
▁잘던	-11.7016
▁마음만	-11.7021
▁부를	-11.7021
충전기	-11.7024
▁늦지	-11.7026
▁질이	-11.7032
▁더러운것	-11.7036
▁요리하는	-11.7036
▁지금이	-11.7036
▁선수다	-11.7037
▁났다	-11.704
▁울리	-11.7043
~~~~~~~~~~~	-11.7045
었거든요	-11.7048
▁공부에	-11.7054
▁기자의	-11.7054
달이다	-11.7054
▁재앙	-11.7058
▁아빠는	-11.7062
▁시청자들	-11.7066
ᅮᅲᅲᅲ	-11.7071
▁개고생이	-11.7071
▁키우는	-11.7071
명만	-11.7072
▁친박이	-11.7074
사냐	-11.7077
34	-11.7081
▁지네들	-11.7084
▁이런문제	-11.7089
리라고	-11.709
더냐	-11.7091
♡♡♡♡♡	-11.7091
▁이딴걸	-11.7091
▁해야겠다	-11.7091
대상은	-11.7094
산에서	-11.7096
▁남자애	-11.7097
뿐인	-11.7099
러간다	-11.7103
▁그만해	-11.7108
▁슬기	-11.711
정에서	-11.7111
드림	-11.7111
▁따라잡	-11.7113
▁난리도	-11.7114
반대	-11.7115
▁일반인이	-11.7116
중ᄏᄏ	-11.7118
하구요	-11.7119
▁병신이	-11.7121
지않을까	-11.7124
▁바리	-11.7125
하는구만	-11.7126
바이	-11.7127
▁집착하	-11.7129
▁대장	-11.7129
하지말라	-11.7129
구하기	-11.7131
▁조사해보	-11.7136
▁술은	-11.7138
▁진짜진짜	-11.7145
▁경찰에	-11.7145
▁못나오	-11.7145
▁다른사람들	-11.7148
먹어라	-11.7152
억울하게	-11.7153
카페에	-11.7154
▁믿을수	-11.7158
▁샤워	-11.716
▁화려	-11.716
▁있는한	-11.716
광복절에	-11.7161
▁감동했	-11.7163
▁개한민국이	-11.7165
▁가져와	-11.7165
▁아이러니	-11.7167
반수	-11.7169
▁파괴하	-11.717
비싸네	-11.7175
갈수	-11.7178
▁어떡하면	-11.7182
▁넣는	-11.7183
▁못하는거	-11.7183
▁이었다	-11.7183
▁못차렸	-11.7184
▁사살	-11.7185
▁어마어마하	-11.7194
안먹	-11.7194
▁요즘들어	-11.7197
▁조작질	-11.7197
▁부르면	-11.7199
▁이런생각	-11.72
▁고통이	-11.7201
^^^	-11.7201
▁대선이	-11.7202
▁무섭다고	-11.7202
해야할듯	-11.7203
▁여자나	-11.7204
▁설현이	-11.7206
이더냐	-11.7207
▁그네가	-11.7208
▁말라는	-11.7209
있다가	-11.721
▁할려고	-11.7211
▁활용	-11.7211
나오냐	-11.7212
▁네이	-11.7212
▁버는	-11.7213
봤던	-11.7213
시키네	-11.7214
▁사나	-11.7214
한거같은데	-11.7215
만들라고	-11.7221
▁참치	-11.7224
▁빵에	-11.7224
▁가면서	-11.7225
▁지시했	-11.7225
눈물난다	-11.7227
▁3~4	-11.7229
▁새누리가	-11.7232
▁진도	-11.7235
온거	-11.7237
▁저나라	-11.7238
▁욕은	-11.7241
▁그곳	-11.725
키우	-11.7251
▁옴	-11.7252
아가는	-11.7253
▁돈쓰	-11.7254
▁여자사람	-11.7255
▁시민이	-11.7261
▁볼만	-11.7263
려라	-11.7266
대나	-11.7266
그러나요	-11.7266
국회에	-11.7266
신세	-11.7266
▁착각하	-11.7268
병으로	-11.727
▁몇억	-11.7274
▁보겠네	-11.7275
치면서	-11.7278
▁운전자	-11.7281
내미	-11.7282
누르고	-11.7283
길에	-11.7283
▁정의로	-11.7287
ᅮᅮᅮᅮᅮᅮᅮ	-11.7288
▁이름은	-11.7289
바라보고	-11.729
▁아기는	-11.7292
▁이런분들	-11.7292
▁끝났네	-11.7294
▁삽질	-11.7297
▁줄이야	-11.7299
러운	-11.73
▁돌렸	-11.7301
겟네요	-11.7301
▁연습하고	-11.7302
▁벌을	-11.7302
▁이형	-11.7306
시국이	-11.7308
▁무서운거	-11.7308
▁이말	-11.731
주시니	-11.731
▁막가는	-11.7312
▁시국	-11.7312
▁처먹어	-11.7314
지는건	-11.7314
피아	-11.7315
아는데	-11.732
▁빠지고	-11.7321
▁했고	-11.7324
강이	-11.7325
강아지가	-11.7326
▁온전	-11.7326
▁승승장구하	-11.7327
▁그런건	-11.7331
친구들이	-11.7331
▁고인	-11.7332
▁본인들	-11.7335
이번	-11.7336
뽑네	-11.7336
▁김경	-11.7337
▁폐지되	-11.7337
치로	-11.7338
▁잇다	-11.7339
메뉴가	-11.7339
▁예쁘네	-11.7341
잡네	-11.7344
실지	-11.735
긴했지만	-11.7352
느낌이	-11.7355
했단	-11.7355
▁불고	-11.7356
사는지	-11.7359
▁기사나	-11.7361
남들	-11.7361
▁인가요	-11.7364
▁마련	-11.7366
대통령은	-11.7367
나왔냐	-11.7367
▁첫사랑	-11.7373
위해서	-11.7376
▁조사해야	-11.7379
▁율	-11.7381
수도있	-11.7384
▁김수	-11.7384
▁무시무시하	-11.7389
는생각이	-11.739
▁교환이	-11.7394
신청	-11.7395
아픈데	-11.7396
말도안되는	-11.7399
▁시작이	-11.7399
▁변명하는	-11.74
~~^^♡	-11.7402
▁해먹어	-11.7407
▁뭔일이	-11.7407
▁정기	-11.7413
▁치네	-11.7414
▁ᄅ	-11.7416
▁광복절	-11.7416
쇼를	-11.7417
▁샤워하	-11.7418
해야합니다	-11.7418
▁평등	-11.7419
▁사고치	-11.7424
살았는데	-11.7428
▁코스프레	-11.7428
▁하고싶	-11.7429
▁전에도	-11.7431
▁문을	-11.7432
엇을	-11.7433
우선	-11.7436
▁연기자	-11.744
동력	-11.7446
성장	-11.7447
▁부담스러워하	-11.7448
▁시키는	-11.745
▁옆	-11.745
워요	-11.745
빠르	-11.7451
▁기대도	-11.7453
누진세	-11.7453
이따위로	-11.7456
▁곳곳	-11.7456
▁외에	-11.7456
해져서	-11.7457
보낸다	-11.7459
▁상주	-11.7459
▁열심히하는	-11.746
▁몇시간	-11.7461
궁금하	-11.7469
▁다른남자	-11.7471
침이	-11.7473
~40	-11.7474
해지네요	-11.7474
하실분	-11.7475
▁희망이	-11.7477
▁배려하	-11.7478
안다고	-11.7483
▁속으	-11.7483
잡기	-11.7487
▁내려놓	-11.7497
▁밥상	-11.7499
▁소릴	-11.7502
쓰면	-11.7503
▁장난이	-11.7504
▁죄송한	-11.7505
▁석	-11.7506
바보	-11.7509
▁씹어먹	-11.751
램	-11.7512
▁지쳤	-11.7512
▁구매하	-11.7516
어야한다	-11.7519
따구	-11.7523
▁선정	-11.7525
것도아니고	-11.7526
▁연락와	-11.7527
▁임창용이	-11.7528
▁할수가	-11.753
▁지출	-11.7531
지못해	-11.7534
[...]
